{
  "version": "1.0",
  "truncation": null,
  "padding": null,
  "added_tokens": [
    {
      "id": 0,
      "content": "[UNK]",
      "single_word": false,
      "lstrip": false,
      "rstrip": false,
      "normalized": false,
      "special": true
    },
    {
      "id": 1,
      "content": "[EOL]",
      "single_word": false,
      "lstrip": false,
      "rstrip": false,
      "normalized": false,
      "special": true
    },
    {
      "id": 2,
      "content": "[EOS]",
      "single_word": false,
      "lstrip": false,
      "rstrip": false,
      "normalized": false,
      "special": true
    },
    {
      "id": 3,
      "content": "[SOS]",
      "single_word": false,
      "lstrip": false,
      "rstrip": false,
      "normalized": false,
      "special": true
    }
  ],
  "normalizer": null,
  "pre_tokenizer": {
    "type": "Whitespace"
  },
  "post_processor": null,
  "decoder": null,
  "model": {
    "type": "BPE",
    "dropout": null,
    "unk_token": "[UNK]",
    "continuing_subword_prefix": null,
    "end_of_word_suffix": null,
    "fuse_unk": false,
    "byte_fallback": false,
    "vocab": {
      "[UNK]": 0,
      "[EOL]": 1,
      "[EOS]": 2,
      "[SOS]": 3,
      "!": 4,
      "\"": 5,
      "#": 6,
      "$": 7,
      "%": 8,
      "&": 9,
      "'": 10,
      "(": 11,
      ")": 12,
      "*": 13,
      "+": 14,
      ",": 15,
      "-": 16,
      ".": 17,
      "/": 18,
      "0": 19,
      "1": 20,
      "2": 21,
      "3": 22,
      "4": 23,
      "5": 24,
      "6": 25,
      "7": 26,
      "8": 27,
      "9": 28,
      ":": 29,
      ";": 30,
      "<": 31,
      "=": 32,
      ">": 33,
      "?": 34,
      "@": 35,
      "A": 36,
      "B": 37,
      "C": 38,
      "D": 39,
      "E": 40,
      "F": 41,
      "G": 42,
      "H": 43,
      "I": 44,
      "J": 45,
      "K": 46,
      "L": 47,
      "M": 48,
      "N": 49,
      "O": 50,
      "P": 51,
      "Q": 52,
      "R": 53,
      "S": 54,
      "T": 55,
      "U": 56,
      "V": 57,
      "W": 58,
      "X": 59,
      "Y": 60,
      "Z": 61,
      "[": 62,
      "\\": 63,
      "]": 64,
      "^": 65,
      "_": 66,
      "`": 67,
      "a": 68,
      "b": 69,
      "c": 70,
      "d": 71,
      "e": 72,
      "f": 73,
      "g": 74,
      "h": 75,
      "i": 76,
      "j": 77,
      "k": 78,
      "l": 79,
      "m": 80,
      "n": 81,
      "o": 82,
      "p": 83,
      "q": 84,
      "r": 85,
      "s": 86,
      "t": 87,
      "u": 88,
      "v": 89,
      "w": 90,
      "x": 91,
      "y": 92,
      "z": 93,
      "{": 94,
      "|": 95,
      "}": 96,
      "~": 97,
      "§": 98,
      "«": 99,
      "µ": 100,
      "»": 101,
      "ä": 102,
      "–": 103,
      "’": 104,
      "−": 105,
      "い": 106,
      "し": 107,
      "だ": 108,
      "よ": 109,
      "ァ": 110,
      "イ": 111,
      "ォ": 112,
      "キ": 113,
      "ス": 114,
      "ダ": 115,
      "テ": 116,
      "ト": 117,
      "ド": 118,
      "フ": 119,
      "メ": 120,
      "ュ": 121,
      "ル": 122,
      "ン": 123,
      "名": 124,
      "字": 125,
      "新": 126,
      "漢": 127,
      "表": 128,
      "規": 129,
      "長": 130,
      "->": 131,
      "re": 132,
      "in": 133,
      ");": 134,
      "st": 135,
      "er": 136,
      "at": 137,
      "se": 138,
      "de": 139,
      "if": 140,
      "en": 141,
      "co": 142,
      "t_": 143,
      "or": 144,
      "int": 145,
      "si": 146,
      "al": 147,
      "ct": 148,
      "le": 149,
      "ar": 150,
      "lo": 151,
      "am": 152,
      "ur": 153,
      "ch": 154,
      "ret": 155,
      "_t": 156,
      "ze": 157,
      "it": 158,
      "on": 159,
      "an": 160,
      "ad": 161,
      "el": 162,
      "size": 163,
      "ff": 164,
      "id": 165,
      "urn": 166,
      "_p": 167,
      "return": 168,
      "ck": 169,
      "un": 170,
      "ge": 171,
      "te": 172,
      "bu": 173,
      "tr": 174,
      "av": 175,
      "con": 176,
      "_f": 177,
      "str": 178,
      "th": 179,
      "ma": 180,
      "ut": 181,
      "mp": 182,
      "e_": 183,
      "ic": 184,
      "to": 185,
      "s_": 186,
      "ata": 187,
      "ed": 188,
      "len": 189,
      "ctx": 190,
      "ca": 191,
      "==": 192,
      "op": 193,
      "T_": 194,
      "ER": 195,
      "ame": 196,
      "la": 197,
      "ue": 198,
      "pr": 199,
      "\",": 200,
      "))": 201,
      "*/": 202,
      "pe": 203,
      "data": 204,
      "/*": 205,
      "00": 206,
      "32": 207,
      "err": 208,
      "val": 209,
      "ing": 210,
      "IN": 211,
      "for": 212,
      "ate": 213,
      "ion": 214,
      "(&": 215,
      "else": 216,
      "++": 217,
      "fi": 218,
      "_s": 219,
      "dr": 220,
      "em": 221,
      "buf": 222,
      "ex": 223,
      "um": 224,
      "E_": 225,
      "0x": 226,
      "set": 227,
      "OR": 228,
      "LL": 229,
      "d_": 230,
      "AV": 231,
      "code": 232,
      "case": 233,
      "c_": 234,
      "pu": 235,
      "im": 236,
      "NU": 237,
      "no": 238,
      "b_": 239,
      "_S": 240,
      "dev": 241,
      "ro": 242,
      "16": 243,
      "ab": 244,
      "is": 245,
      "ak": 246,
      "RE": 247,
      "lock": 248,
      "et": 249,
      "io": 250,
      "NULL": 251,
      "get_": 252,
      "as": 253,
      "];": 254,
      "_m": 255,
      "));": 256,
      "out": 257,
      "_re": 258,
      "bre": 259,
      "const": 260,
      "of": 261,
      "((": 262,
      "lt": 263,
      "ype": 264,
      "G_": 265,
      "break": 266,
      "uint": 267,
      "),": 268,
      "_b": 269,
      "ce": 270,
      "us": 271,
      "off": 272,
      "64": 273,
      "ig": 274,
      "_in": 275,
      "he": 276,
      "go": 277,
      "li": 278,
      "res": 279,
      "gs": 280,
      "sr": 281,
      "yy": 282,
      "(!": 283,
      "tex": 284,
      "_c": 285,
      "(\"": 286,
      "!=": 287,
      "fo": 288,
      "uct": 289,
      "pi": 290,
      "and": 291,
      "ack": 292,
      "sc": 293,
      "stat": 294,
      "iv": 295,
      "DE": 296,
      "ent": 297,
      "struct": 298,
      "&&": 299,
      "],": 300,
      "_P": 301,
      "LO": 302,
      "up": 303,
      "mo": 304,
      "\");": 305,
      "sp": 306,
      "ne": 307,
      "lin": 308,
      "goto": 309,
      "end": 310,
      "bit": 311,
      "_C": 312,
      "addr": 313,
      "ERR": 314,
      "_size": 315,
      "num": 316,
      "ffer": 317,
      "ol": 318,
      "MA": 319,
      "rame": 320,
      "ir": 321,
      "avctx": 322,
      "sk": 323,
      "unt": 324,
      "][": 325,
      "AL": 326,
      "++)": 327,
      "ip": 328,
      "able": 329,
      "ra": 330,
      "text": 331,
      "char": 332,
      "EN": 333,
      "].": 334,
      "mm": 335,
      "fa": 336,
      "dex": 337,
      "TA": 338,
      "il": 339,
      "g_": 340,
      "ream": 341,
      "ide": 342,
      "ile": 343,
      "_F": 344,
      "+=": 345,
      "amp": 346,
      "dst": 347,
      "sig": 348,
      "sizeof": 349,
      "buffer": 350,
      "offset": 351,
      "<<": 352,
      "ERROR": 353,
      "es": 354,
      "count": 355,
      "ON": 356,
      "cur": 357,
      "do": 358,
      "//": 359,
      "name": 360,
      ">>": 361,
      "mat": 362,
      "igh": 363,
      "ser": 364,
      "loc": 365,
      "log": 366,
      "er_": 367,
      "read": 368,
      "stream": 369,
      "ID": 370,
      "put": 371,
      "env": 372,
      "||": 373,
      "sh": 374,
      "In": 375,
      "src": 376,
      "FF": 377,
      "12": 378,
      "_T": 379,
      "*)": 380,
      "error": 381,
      "::": 382,
      "the": 383,
      "value": 384,
      "sign": 385,
      "block": 386,
      "mem": 387,
      "ver": 388,
      "yte": 389,
      "av_": 390,
      "ort": 391,
      "AR": 392,
      "nel": 393,
      "ample": 394,
      "ren": 395,
      "ree": 396,
      "que": 397,
      "OP": 398,
      "line": 399,
      "Con": 400,
      "gb": 401,
      "po": 402,
      "p_": 403,
      "lags": 404,
      "intf": 405,
      "bits": 406,
      "vo": 407,
      "put_": 408,
      "type": 409,
      "chan": 410,
      "ul": 411,
      "st_": 412,
      "C_": 413,
      "ight": 414,
      "S_": 415,
      "ub": 416,
      "comp": 417,
      "ac": 418,
      "10": 419,
      "TR": 420,
      "ke": 421,
      "ME": 422,
      "max": 423,
      "void": 424,
      "idth": 425,
      "ts": 426,
      "ptr": 427,
      "par": 428,
      "pre": 429,
      "y_": 430,
      "rit": 431,
      "ure": 432,
      "star": 433,
      "cpu": 434,
      "ase": 435,
      "ap": 436,
      "tion": 437,
      "AV_": 438,
      "state": 439,
      "frame": 440,
      "width": 441,
      "St": 442,
      "signed": 443,
      "ext": 444,
      "ref": 445,
      "ctor": 446,
      "ult": 447,
      "new": 448,
      "qu": 449,
      "emu": 450,
      "%%": 451,
      "so": 452,
      "byte": 453,
      "();": 454,
      "set_": 455,
      "ve": 456,
      "printf": 457,
      "info": 458,
      "alloc": 459,
      "head": 460,
      "tmp": 461,
      "list": 462,
      "writ": 463,
      "ation": 464,
      "static": 465,
      "ss": 466,
      "pro": 467,
      "BU": 468,
      "AC": 469,
      "unsigned": 470,
      "ice": 471,
      "IT": 472,
      "dc": 473,
      "age": 474,
      "mb_": 475,
      "YP": 476,
      "LOG_": 477,
      "SE": 478,
      "uint8": 479,
      "')": 480,
      "ram": 481,
      "qemu": 482,
      "ist": 483,
      "sion": 484,
      "32_t": 485,
      "AD": 486,
      "gth": 487,
      "be": 488,
      "]);": 489,
      "pl": 490,
      "m_": 491,
      "channel": 492,
      "MP": 493,
      "yych": 494,
      "<=": 495,
      "it_": 496,
      "flo": 497,
      "tim": 498,
      "map": 499,
      "tc": 500,
      "SS": 501,
      "v_": 502,
      "file": 503,
      "pc": 504,
      "ut_": 505,
      "pb": 506,
      "--": 507,
      "l_": 508,
      "UR": 509,
      "add": 510,
      "Context": 511,
      "index": 512,
      "key": 513,
      "Re": 514,
      "CO": 515,
      "idx": 516,
      "bs": 517,
      "i_": 518,
      "bo": 519,
      "def": 520,
      "flags": 521,
      "arg": 522,
      "LE": 523,
      "LA": 524,
      "reg": 525,
      "ms": 526,
      "stride": 527,
      "uint8_t": 528,
      "py": 529,
      "pix": 530,
      "length": 531,
      "IO": 532,
      "_type": 533,
      "PR": 534,
      "(*": 535,
      "height": 536,
      "D_": 537,
      "_h": 538,
      "ev": 539,
      "ix": 540,
      "get": 541,
      "_r": 542,
      "che": 543,
      "av_log": 544,
      "sample": 545,
      "lter": 546,
      "cr": 547,
      "bj": 548,
      "col": 549,
      "ode": 550,
      "md": 551,
      "sw": 552,
      "mb": 553,
      "AV_LOG_": 554,
      "entr": 555,
      ">=": 556,
      "_d": 557,
      "gen": 558,
      "wh": 559,
      "ph": 560,
      "nd": 561,
      "INT": 562,
      "codec": 563,
      "AT": 564,
      "ize": 565,
      "ta": 566,
      "start": 567,
      "not": 568,
      "SI": 569,
      "ction": 570,
      "FI": 571,
      "VAL": 572,
      "UN": 573,
      "fd": 574,
      "port": 575,
      "_de": 576,
      "IC": 577,
      "rc": 578,
      "EC": 579,
      "priv": 580,
      "_free": 581,
      "EX": 582,
      "ng": 583,
      "11": 584,
      "ter": 585,
      "F_": 586,
      "pk": 587,
      "GE": 588,
      "yp": 589,
      "_ptr": 590,
      "YY": 591,
      "header": 592,
      "sy": 593,
      "curren": 594,
      "MAX": 595,
      "uint32_t": 596,
      "status": 597,
      "al_": 598,
      "context": 599,
      "_index": 600,
      "DI": 601,
      "cal": 602,
      "RA": 603,
      "cl": 604,
      "au": 605,
      "SC": 606,
      "der": 607,
      "++;": 608,
      "ZE": 609,
      "L_": 610,
      "out_": 611,
      "nt": 612,
      "float": 613,
      "000": 614,
      "_data": 615,
      "CP": 616,
      "lay": 617,
      "inter": 618,
      "long": 619,
      "ath": 620,
      "ho": 621,
      "64_t": 622,
      "lev": 623,
      "ens": 624,
      "_par": 625,
      "min": 626,
      "ST": 627,
      "use": 628,
      "mask": 629,
      "PC": 630,
      "M_": 631,
      "State": 632,
      "YPE_": 633,
      "std": 634,
      "()": 635,
      "f_": 636,
      "mode": 637,
      "di": 638,
      "level": 639,
      "obj": 640,
      "we": 641,
      "IT_": 642,
      "sl": 643,
      "])": 644,
      "**": 645,
      "99": 646,
      "scal": 647,
      "is_": 648,
      "bl": 649,
      "pkt": 650,
      "_get_": 651,
      "25": 652,
      "AVERROR": 653,
      "ran": 654,
      "20": 655,
      "node": 656,
      "ct_": 657,
      "CH": 658,
      "24": 659,
      "mage": 660,
      "base": 661,
      "cture": 662,
      "linesize": 663,
      "while": 664,
      "write": 665,
      "itch": 666,
      "io_": 667,
      "Co": 668,
      "acket": 669,
      "_to": 670,
      "rame_": 671,
      "rr": 672,
      "INVAL": 673,
      "lag": 674,
      "DEBU": 675,
      "|=": 676,
      "15": 677,
      "endif": 678,
      "De": 679,
      ",-": 680,
      "ps": 681,
      "string": 682,
      "asser": 683,
      "defa": 684,
      "ment": 685,
      "req": 686,
      "table": 687,
      "P_": 688,
      "Get": 689,
      "US": 690,
      "_pr": 691,
      "13": 692,
      "sn": 693,
      "size_t": 694,
      "mv": 695,
      "_fi": 696,
      "Bu": 697,
      "AV_LOG_ERROR": 698,
      "TI": 699,
      "0000": 700,
      "_table": 701,
      "comm": 702,
      "in_": 703,
      "lef": 704,
      "nc": 705,
      "14": 706,
      "DA": 707,
      "pos": 708,
      "entry": 709,
      "ust": 710,
      "temp": 711,
      "red": 712,
      "ideo": 713,
      "_po": 714,
      "sub": 715,
      "_frame": 716,
      "mt": 717,
      "ate_": 718,
      "NO": 719,
      "hand": 720,
      "ff_": 721,
      "format": 722,
      "next": 723,
      "pic": 724,
      "coe": 725,
      "_read": 726,
      "wor": 727,
      "input": 728,
      "_op": 729,
      "pa": 730,
      "valid": 731,
      "AN": 732,
      "CUR": 733,
      "last": 734,
      "_B": 735,
      "dir": 736,
      "Str": 737,
      "UE": 738,
      "ormat": 739,
      "MO": 740,
      "ant": 741,
      "sock": 742,
      "_reg": 743,
      "PI": 744,
      "pixel": 745,
      "unk": 746,
      "nb_": 747,
      "du": 748,
      "MEM": 749,
      "row": 750,
      "fig": 751,
      "){": 752,
      "NE": 753,
      "its": 754,
      "current_": 755,
      "switch": 756,
      "ensor": 757,
      "cb": 758,
      "SL": 759,
      "output": 760,
      "a_": 761,
      "link": 762,
      "vl": 763,
      "\"%": 764,
      "_SI": 765,
      "SOR": 766,
      "128": 767,
      "cmp": 768,
      "cmd": 769,
      "back": 770,
      "ep": 771,
      "time": 772,
      "atch": 773,
      "cpy": 774,
      "Ch": 775,
      "image": 776,
      "low": 777,
      "r_": 778,
      "_RE": 779,
      "CURSOR": 780,
      "dis": 781,
      "_info": 782,
      "ted": 783,
      "pp": 784,
      "ha": 785,
      "init": 786,
      "YYCURSOR": 787,
      "16_t": 788,
      "ag": 789,
      "ds": 790,
      "RO": 791,
      "ty": 792,
      "irq": 793,
      "alse": 794,
      "MT_": 795,
      "rom": 796,
      "ory": 797,
      "mov": 798,
      "picture": 799,
      "var": 800,
      "get_bits": 801,
      "ly": 802,
      "user": 803,
      "18": 804,
      "video": 805,
      "rror": 806,
      "DEBUG": 807,
      "ine": 808,
      "uv": 809,
      "path": 810,
      "CK": 811,
      "check": 812,
      "default": 813,
      "load": 814,
      "IP": 815,
      "DATA": 816,
      "ice_": 817,
      "ker": 818,
      "channels": 819,
      "fail": 820,
      "TE": 821,
      "rd": 822,
      "rt": 823,
      "ith": 824,
      "GET_": 825,
      "chr": 826,
      "assert": 827,
      "},": 828,
      "TO": 829,
      "XM": 830,
      "Data": 831,
      "tar": 832,
      "tcg_": 833,
      "JIT_": 834,
      "wn": 835,
      "SK": 836,
      "act": 837,
      "ress": 838,
      "free": 839,
      "SLJIT_": 840,
      "output_": 841,
      "TH": 842,
      "(%": 843,
      "false": 844,
      "RT": 845,
      "attr": 846,
      "_id": 847,
      "desc": 848,
      "cc": 849,
      "ext_": 850,
      "_len": 851,
      "aque": 852,
      "lename": 853,
      "frame_": 854,
      "R_": 855,
      "0x0": 856,
      "per": 857,
      "ind": 858,
      "can": 859,
      "2_": 860,
      "ime": 861,
      "msg": 862,
      "hdr": 863,
      "CON": 864,
      "decode": 865,
      "ok": 866,
      "quest": 867,
      "extr": 868,
      "ial": 869,
      "ER_": 870,
      "x_": 871,
      "17": 872,
      "band": 873,
      "config": 874,
      "opaque": 875,
      "-=": 876,
      "_SIZE": 877,
      "blk": 878,
      "input_": 879,
      "irt": 880,
      "fir": 881,
      "OK": 882,
      "qemu_": 883,
      "ams": 884,
      "src_": 885,
      "SP": 886,
      "scale": 887,
      "all": 888,
      "ift": 889,
      "memcpy": 890,
      "CE": 891,
      "80": 892,
      "_sample": 893,
      "_pre": 894,
      "30": 895,
      "ect": 896,
      "fprintf": 897,
      "und": 898,
      "ENO": 899,
      "aud": 900,
      "ard": 901,
      "ray": 902,
      "_STA": 903,
      "chro": 904,
      "this": 905,
      "_count": 906,
      "sum": 907,
      "sb": 908,
      "ent_": 909,
      "cont": 910,
      "regs": 911,
      "iled": 912,
      "one": 913,
      "ber": 914,
      "ND": 915,
      "ST_": 916,
      "Size": 917,
      "]=": 918,
      "Error": 919,
      "_TYPE_": 920,
      "xy": 921,
      "ies": 922,
      "eld": 923,
      "Fi": 924,
      "true": 925,
      "device": 926,
      "sector": 927,
      "dest": 928,
      "args": 929,
      "ot": 930,
      "chunk": 931,
      "40": 932,
      "X_": 933,
      "adata": 934,
      "num_": 935,
      "run": 936,
      "ity": 937,
      "LI": 938,
      "vector": 939,
      "AU": 940,
      "wa": 941,
      "DR": 942,
      "fl": 943,
      "ive": 944,
      "cli": 945,
      "vm": 946,
      "MM": 947,
      "\"\\": 948,
      "left": 949,
      "IL": 950,
      "X_F": 951,
      "fs": 952,
      "uint64_t": 953,
      "_init": 954,
      "bytes": 955,
      "fb": 956,
      "emp": 957,
      "UP": 958,
      "zer": 959,
      "ed_": 960,
      "handle": 961,
      "plan": 962,
      "host": 963,
      "ler": 964,
      "=%": 965,
      "Un": 966,
      "pth": 967,
      "chroma": 968,
      "upd": 969,
      "me": 970,
      "BIT": 971,
      "coeff": 972,
      "Par": 973,
      "start_": 974,
      "Y_": 975,
      "86": 976,
      "Buffer": 977,
      "19": 978,
      "fe": 979,
      "cre": 980,
      "has": 981,
      "AP": 982,
      "enc": 983,
      "Ex": 984,
      "skip": 985,
      "ses": 986,
      "_CO": 987,
      "tran": 988,
      "ID_": 989,
      "color": 990,
      "_l": 991,
      "tp": 992,
      "filter": 993,
      "26": 994,
      "cs": 995,
      ")))": 996,
      "Type": 997,
      "pt": 998,
      "vc": 999,
      "edi": 1000,
      "nb": 1001,
      "u_": 1002,
      "56": 1003,
      "Ad": 1004,
      "0xff": 1005,
      "\")": 1006,
      "\";": 1007,
      "HE": 1008,
      "Tensor": 1009,
      "cryp": 1010,
      "_flags": 1011,
      "net": 1012,
      "1_": 1013,
      "test": 1014,
      "lose": 1015,
      "cache": 1016,
      "X_FMT_": 1017,
      "V_": 1018,
      "option": 1019,
      "AM": 1020,
      "TAR": 1021,
      "TC": 1022,
      "errp": 1023,
      "version": 1024,
      "ifdef": 1025,
      "ING": 1026,
      ">(": 1027,
      "ave": 1028,
      "ign": 1029,
      "LE_": 1030,
      "por": 1031,
      "are": 1032,
      "SH": 1033,
      "ps_": 1034,
      "ding": 1035,
      "et_": 1036,
      "CPU": 1037,
      "cpu_": 1038,
      "av_free": 1039,
      "first": 1040,
      "_mode": 1041,
      "bytestream": 1042,
      "50": 1043,
      "Filter": 1044,
      "next_": 1045,
      "FO": 1046,
      "prev": 1047,
      "hw": 1048,
      "copy": 1049,
      "String": 1050,
      "VI": 1051,
      "_bits": 1052,
      "target_": 1053,
      "win": 1054,
      "ue_": 1055,
      "ree_": 1056,
      "ele": 1057,
      "page": 1058,
      "ers": 1059,
      "};": 1060,
      ")(": 1061,
      "sa": 1062,
      "core": 1063,
      "stderr": 1064,
      "ption": 1065,
      "*(": 1066,
      "utex": 1067,
      "packet": 1068,
      "sg": 1069,
      "int_": 1070,
      "conn": 1071,
      "8x": 1072,
      "bug": 1073,
      "virt": 1074,
      "result": 1075,
      "ci": 1076,
      "..": 1077,
      "I_": 1078,
      "XML": 1079,
      "tx": 1080,
      "zero": 1081,
      "AVERROR_": 1082,
      "_SE": 1083,
      "with": 1084,
      "open": 1085,
      "CODE": 1086,
      "old": 1087,
      "memset": 1088,
      "AB": 1089,
      "ull": 1090,
      "flag": 1091,
      "iov": 1092,
      "34": 1093,
      "SR": 1094,
      "int64_t": 1095,
      "top": 1096,
      "ED": 1097,
      "TYPE_": 1098,
      "dif": 1099,
      "PA": 1100,
      "den": 1101,
      "buf_size": 1102,
      "gf": 1103,
      "_malloc": 1104,
      "write_": 1105,
      "ixel": 1106,
      "new_": 1107,
      "INVALID": 1108,
      "filename": 1109,
      "samples": 1110,
      "_pro": 1111,
      "cess": 1112,
      "end_": 1113,
      "MU": 1114,
      "22": 1115,
      "queue": 1116,
      "__": 1117,
      "REG_": 1118,
      "sup": 1119,
      "En": 1120,
      "codec_": 1121,
      "DO": 1122,
      "EL": 1123,
      "mx": 1124,
      "MASK": 1125,
      "ister": 1126,
      ":%": 1127,
      "0f": 1128,
      "sen": 1129,
      "error_": 1130,
      "eg": 1131,
      "tag": 1132,
      "44": 1133,
      "ENOMEM": 1134,
      "roup": 1135,
      "_fun": 1136,
      "dsp": 1137,
      "SIZE": 1138,
      "enable": 1139,
      "spa": 1140,
      "_buf": 1141,
      "coding": 1142,
      "----": 1143,
      "REG": 1144,
      "vlc": 1145,
      "Frame": 1146,
      "Ar": 1147,
      "pack": 1148,
      "add_": 1149,
      "contin": 1150,
      "'\\": 1151,
      "TARGET_": 1152,
      "MIN": 1153,
      "range": 1154,
      "_block": 1155,
      "_offset": 1156,
      "nal": 1157,
      "number": 1158,
      "oper": 1159,
      "EINVAL": 1160,
      "Info": 1161,
      "vs": 1162,
      "try": 1163,
      "event": 1164,
      "(),": 1165,
      "max_": 1166,
      "39": 1167,
      "Lo": 1168,
      "GE_": 1169,
      "w_": 1170,
      "MB": 1171,
      "scan": 1172,
      "quant": 1173,
      "IG": 1174,
      "request": 1175,
      "lass": 1176,
      "KE": 1177,
      "ld": 1178,
      "evice": 1179,
      "_PI": 1180,
      "order": 1181,
      "_to_": 1182,
      "ASS": 1183,
      "256": 1184,
      "_sh": 1185,
      "_STAT": 1186,
      "He": 1187,
      "values": 1188,
      "_file": 1189,
      "ndo": 1190,
      "To": 1191,
      "drv": 1192,
      "od": 1193,
      "continue": 1194,
      "BITS": 1195,
      "CT": 1196,
      "ush": 1197,
      "ail": 1198,
      "dec": 1199,
      "session": 1200,
      "LOCK": 1201,
      "IF": 1202,
      "ops": 1203,
      "YPE": 1204,
      "fix": 1205,
      "jo": 1206,
      "MS": 1207,
      "_buffer": 1208,
      "uld": 1209,
      "intra": 1210,
      "Val": 1211,
      "ie": 1212,
      "seg": 1213,
      "ect_": 1214,
      "_put_": 1215,
      "failed": 1216,
      "_pos": 1217,
      "arch": 1218,
      "om": 1219,
      "errno": 1220,
      "from": 1221,
      "_un": 1222,
      "mb_x": 1223,
      "]->": 1224,
      "cond": 1225,
      "LEN": 1226,
      "264": 1227,
      "AS": 1228,
      "':": 1229,
      "Format": 1230,
      "ost": 1231,
      "LAG_": 1232,
      "_PR": 1233,
      "1000": 1234,
      "rl": 1235,
      "mb_y": 1236,
      "common": 1237,
      "rate": 1238,
      "coder": 1239,
      "_addr": 1240,
      "audio": 1241,
      "match": 1242,
      ")->": 1243,
      "gen_": 1244,
      "4_": 1245,
      "scr": 1246,
      "array": 1247,
      "',": 1248,
      "_format": 1249,
      ".\\": 1250,
      "vq": 1251,
      "02": 1252,
      "uble": 1253,
      "tl": 1254,
      "Add": 1255,
      "bool": 1256,
      "OM": 1257,
      "_mem": 1258,
      "track": 1259,
      "())": 1260,
      "group": 1261,
      "pect": 1262,
      "parse": 1263,
      "yn": 1264,
      "QU": 1265,
      "ml": 1266,
      "VER": 1267,
      "align": 1268,
      "ping": 1269,
      "init_": 1270,
      "STA": 1271,
      "ick": 1272,
      "55": 1273,
      "_cpu": 1274,
      "priv_data": 1275,
      "proto": 1276,
      "ns": 1277,
      "ask": 1278,
      "pha": 1279,
      "_flag": 1280,
      "tor": 1281,
      "ll": 1282,
      "bus": 1283,
      "streams": 1284,
      "Set": 1285,
      "current": 1286,
      "uto": 1287,
      "sha": 1288,
      "u32": 1289,
      "ast": 1290,
      "vec": 1291,
      "img": 1292,
      "sf": 1293,
      "&=": 1294,
      "su": 1295,
      "ain": 1296,
      "IV": 1297,
      "encode": 1298,
      "strcmp": 1299,
      "LOG": 1300,
      "N_": 1301,
      "76": 1302,
      "double": 1303,
      "_CH": 1304,
      "cle": 1305,
      "sage": 1306,
      "Input": 1307,
      "ary": 1308,
      "sps": 1309,
      "int16_t": 1310,
      "pi_": 1311,
      "dim": 1312,
      "dow": 1313,
      "clust": 1314,
      "exp": 1315,
      "uint16_t": 1316,
      "opt": 1317,
      "read_": 1318,
      "DE_": 1319,
      "est": 1320,
      "memory": 1321,
      "DEV": 1322,
      "usb_": 1323,
      "SO": 1324,
      "skb": 1325,
      "ore": 1326,
      "ec": 1327,
      "fg": 1328,
      "vdev": 1329,
      "GF": 1330,
      "ce_": 1331,
      "ive_": 1332,
      "());": 1333,
      "ek": 1334,
      "db": 1335,
      "conne": 1336,
      "dp": 1337,
      "ader": 1338,
      "int32_t": 1339,
      "trol": 1340,
      "urce": 1341,
      "lab": 1342,
      "shift": 1343,
      "ht": 1344,
      "pts": 1345,
      "ents": 1346,
      "work": 1347,
      "ov": 1348,
      "ply": 1349,
      "seq": 1350,
      "ance": 1351,
      "36": 1352,
      "address": 1353,
      "avio": 1354,
      "_th": 1355,
      "qp": 1356,
      "current_picture": 1357,
      "_sub": 1358,
      "ception": 1359,
      "server": 1360,
      "96": 1361,
      "tot": 1362,
      "\"));": 1363,
      "ated": 1364,
      "word": 1365,
      "hape": 1366,
      "rb": 1367,
      "ild": 1368,
      "DC": 1369,
      "EG": 1370,
      "ss_": 1371,
      "my": 1372,
      "field": 1373,
      "used": 1374,
      "cap": 1375,
      "UV": 1376,
      "ype_": 1377,
      "ASSER": 1378,
      "AVERROR_INVALID": 1379,
      "AVERROR_INVALIDDATA": 1380,
      "vp": 1381,
      "rag": 1382,
      "_fmt": 1383,
      "STR": 1384,
      "28": 1385,
      "K_": 1386,
      "48": 1387,
      "rfb": 1388,
      "extradata": 1389,
      "Name": 1390,
      "ock": 1391,
      "_tim": 1392,
      "0x1": 1393,
      "auto": 1394,
      "raw": 1395,
      "PU": 1396,
      "TS": 1397,
      "essage": 1398,
      "ifo": 1399,
      "ator": 1400,
      "exit": 1401,
      "A_": 1402,
      "ax": 1403,
      "lan": 1404,
      "B_": 1405,
      "fun": 1406,
      "ined": 1407,
      "rent": 1408,
      "flow": 1409,
      "list_": 1410,
      "item": 1411,
      "sho": 1412,
      "WR": 1413,
      "LT": 1414,
      "depth": 1415,
      "face": 1416,
      "kernel": 1417,
      "object_": 1418,
      "PRI": 1419,
      "FF_": 1420,
      "lter_": 1421,
      "lete": 1422,
      "Code": 1423,
      "oc": 1424,
      "main": 1425,
      "ALL": 1426,
      "_base": 1427,
      "YYDEBUG": 1428,
      "local_": 1429,
      "id_": 1430,
      "W_": 1431,
      "Device": 1432,
      "TION": 1433,
      "insn": 1434,
      "GF_": 1435,
      "(\"%": 1436,
      "70": 1437,
      "fp": 1438,
      "lim": 1439,
      "_per": 1440,
      "call": 1441,
      "tes": 1442,
      "gr": 1443,
      "bytestream2": 1444,
      "CESS": 1445,
      "\"))": 1446,
      "motion": 1447,
      "lu": 1448,
      "READ": 1449,
      "url": 1450,
      "38": 1451,
      "_time": 1452,
      "++){": 1453,
      "uration": 1454,
      "Stream": 1455,
      "\\\"": 1456,
      "update": 1457,
      "non": 1458,
      "_pic": 1459,
      "_filter": 1460,
      "_byte": 1461,
      "(!(": 1462,
      "hash": 1463,
      "rect": 1464,
      "_tl": 1465,
      "PO": 1466,
      "entries": 1467,
      "lob": 1468,
      "window": 1469,
      "plane": 1470,
      "last_": 1471,
      "CR": 1472,
      "gd": 1473,
      "INFO": 1474,
      "ort_": 1475,
      "options": 1476,
      "cp": 1477,
      "thread": 1478,
      "pci_": 1479,
      "fin": 1480,
      "mb_type": 1481,
      "opts": 1482,
      "delt": 1483,
      "map_": 1484,
      "over": 1485,
      "resp": 1486,
      "OP_": 1487,
      "close": 1488,
      "store": 1489,
      "_cli": 1490,
      "strlen": 1491,
      "78": 1492,
      "card": 1493,
      "conf": 1494,
      "uid": 1495,
      "time_": 1496,
      "dic": 1497,
      "nown": 1498,
      "iver": 1499,
      "_samples": 1500,
      "mple": 1501,
      "edge": 1502,
      "ell": 1503,
      "ult_": 1504,
      "_PRO": 1505,
      "_frame_": 1506,
      "Block": 1507,
      "rix": 1508,
      "35": 1509,
      "31": 1510,
      "File": 1511,
      "spr": 1512,
      "cab": 1513,
      "t1": 1514,
      "defined": 1515,
      "dma": 1516,
      "ded": 1517,
      "mon": 1518,
      "_packet": 1519,
      "md_": 1520,
      "td": 1521,
      "_SU": 1522,
      "left_": 1523,
      "ME_": 1524,
      "step": 1525,
      "GB": 1526,
      "lot": 1527,
      "Hand": 1528,
      "ALSE": 1529,
      "_val": 1530,
      "params": 1531,
      "ported": 1532,
      "se_": 1533,
      "Th": 1534,
      "opcode": 1535,
      "Ptr": 1536,
      "ite": 1537,
      "cnt": 1538,
      "slice_": 1539,
      "parser": 1540,
      "send": 1541,
      "BP": 1542,
      "br": 1543,
      "_pi": 1544,
      "auth": 1545,
      "MD": 1546,
      "seek": 1547,
      "ments": 1548,
      "met": 1549,
      "control": 1550,
      "Reg": 1551,
      "_rate": 1552,
      "List": 1553,
      "test_": 1554,
      "i32": 1555,
      "TRUE": 1556,
      "Out": 1557,
      "iter": 1558,
      "av_freep": 1559,
      "Index": 1560,
      "MAX_": 1561,
      "ECT_": 1562,
      "play": 1563,
      "60": 1564,
      "PIX_FMT_": 1565,
      "diff": 1566,
      "IS_": 1567,
      "app": 1568,
      "movq": 1569,
      "lease": 1570,
      "QE": 1571,
      "_sl": 1572,
      "ndpi_": 1573,
      "client": 1574,
      "LIN": 1575,
      "ifi": 1576,
      "sectors": 1577,
      "le_": 1578,
      "ENT": 1579,
      "ing_": 1580,
      "allo": 1581,
      "l2": 1582,
      "iz": 1583,
      "register": 1584,
      ")*": 1585,
      "PRINT": 1586,
      "g_t": 1587,
      "YUV": 1588,
      "pas": 1589,
      "and_": 1590,
      "FIX": 1591,
      "ill": 1592,
      "lk": 1593,
      ")\\": 1594,
      "ange": 1595,
      "NG": 1596,
      "stack": 1597,
      "has_": 1598,
      "Invalid": 1599,
      "os": 1600,
      "device_": 1601,
      "UT": 1602,
      "ized": 1603,
      "ECT": 1604,
      "Al": 1605,
      "ener": 1606,
      "Buf": 1607,
      "_printf": 1608,
      "At": 1609,
      "Len": 1610,
      "av_malloc": 1611,
      "ute": 1612,
      "SU": 1613,
      "exception": 1614,
      "EXP": 1615,
      "100": 1616,
      "Header": 1617,
      "XX": 1618,
      "_sk": 1619,
      "Pro": 1620,
      "CONFI": 1621,
      "_bit": 1622,
      "_tran": 1623,
      "bit_": 1624,
      "PRO": 1625,
      "rx": 1626,
      "cast": 1627,
      "loop": 1628,
      "';": 1629,
      "channel_": 1630,
      "Value": 1631,
      "pred": 1632,
      "kv": 1633,
      "IR": 1634,
      "90": 1635,
      "sd": 1636,
      "23": 1637,
      "space": 1638,
      "****": 1639,
      "alpha": 1640,
      "ys": 1641,
      "param": 1642,
      "_PAR": 1643,
      "sec": 1644,
      "offset_": 1645,
      "u8": 1646,
      "DEVIC": 1647,
      "unt_": 1648,
      "98": 1649,
      "delta": 1650,
      "debug": 1651,
      "ord": 1652,
      "27": 1653,
      "block_": 1654,
      "WAR": 1655,
      "SCAL": 1656,
      "_end": 1657,
      "KER": 1658,
      "pec": 1659,
      "ach": 1660,
      "AME": 1661,
      "dup": 1662,
      "Bit": 1663,
      "BUFF": 1664,
      "vi": 1665,
      "MOV": 1666,
      "ctrl": 1667,
      "sm": 1668,
      "TUR": 1669,
      "ameter": 1670,
      "ri": 1671,
      "ices": 1672,
      "t0": 1673,
      "change": 1674,
      "LS": 1675,
      "_parser": 1676,
      "bin": 1677,
      "ORD": 1678,
      "section": 1679,
      "imgdata": 1680,
      "command": 1681,
      "retval": 1682,
      "only": 1683,
      "VM": 1684,
      "af": 1685,
      "sing": 1686,
      "shape": 1687,
      "qual": 1688,
      "CHEC": 1689,
      "58": 1690,
      "*)&": 1691,
      "IS": 1692,
      "ud": 1693,
      "blocks": 1694,
      "supported": 1695,
      "##": 1696,
      "TMP": 1697,
      "_TR": 1698,
      "ASSERT_": 1699,
      "isc": 1700,
      "sent": 1701,
      "mapping": 1702,
      "UNC": 1703,
      "END": 1704,
      "drv_": 1705,
      "prog": 1706,
      "alloc_": 1707,
      "expect": 1708,
      "ac_": 1709,
      "_list": 1710,
      "Stat": 1711,
      "xen": 1712,
      "orm": 1713,
      "raph": 1714,
      "Op": 1715,
      "gue": 1716,
      "mm0": 1717,
      "local_err": 1718,
      "object": 1719,
      "_init_": 1720,
      "get_bits1": 1721,
      "_num": 1722,
      "ace_": 1723,
      "ant_": 1724,
      "_R": 1725,
      "bd": 1726,
      "ctxt": 1727,
      "enabled": 1728,
      "xx": 1729,
      "ADD": 1730,
      "ual": 1731,
      ")));": 1732,
      "by": 1733,
      "ature": 1734,
      "_CON": 1735,
      "_page": 1736,
      "invalid": 1737,
      "Col": 1738,
      "Obj": 1739,
      "lens": 1740,
      "tile": 1741,
      "onse": 1742,
      "count_": 1743,
      "ION": 1744,
      "Read": 1745,
      "int32": 1746,
      "Mem": 1747,
      "mv_": 1748,
      "SY": 1749,
      "_free_": 1750,
      "timer": 1751,
      "0x8": 1752,
      "INT_": 1753,
      "ics": 1754,
      "HEAD": 1755,
      "yuv": 1756,
      "total": 1757,
      "97": 1758,
      "setup": 1759,
      "gin": 1760,
      "yload": 1761,
      "mac": 1762,
      "ib": 1763,
      "qscale": 1764,
      "0x00": 1765,
      "MV": 1766,
      "mut": 1767,
      "ition": 1768,
      "_v": 1769,
      "codec_id": 1770,
      "ures": 1771,
      "_tab": 1772,
      "IO_": 1773,
      "Num": 1774,
      "need": 1775,
      "mul": 1776,
      "null": 1777,
      "handler": 1778,
      "\"),": 1779,
      "pd": 1780,
      "nr": 1781,
      "NON": 1782,
      "reply": 1783,
      "descr": 1784,
      "SET": 1785,
      "iph": 1786,
      "Int": 1787,
      "_ST": 1788,
      "pid": 1789,
      "host_": 1790,
      "BO": 1791,
      "TCG_": 1792,
      "37": 1793,
      "0_": 1794,
      "log_": 1795,
      "_shift": 1796,
      "point": 1797,
      "8_": 1798,
      "Pixel": 1799,
      "Char": 1800,
      "sor": 1801,
      "lock_": 1802,
      "[(": 1803,
      "found": 1804,
      "_PIX_FMT_": 1805,
      "bp": 1806,
      "ension": 1807,
      "prop": 1808,
      "%\"": 1809,
      "Image": 1810,
      "AV_PIX_FMT_": 1811,
      "layout": 1812,
      "tt": 1813,
      "_mutex": 1814,
      "compres": 1815,
      "dict_": 1816,
      "--;": 1817,
      "_FLAG_": 1818,
      "argv": 1819,
      "Shape": 1820,
      "reate": 1821,
      "WRIT": 1822,
      "si_": 1823,
      "tok": 1824,
      "fmt": 1825,
      "(-": 1826,
      "sbr": 1827,
      "dx": 1828,
      "CCESS": 1829,
      "DPRINT": 1830,
      "Dr": 1831,
      "gener": 1832,
      "ting": 1833,
      "PAGE_": 1834,
      "put_bits": 1835,
      "frag": 1836,
      "AND": 1837,
      "0xFF": 1838,
      "cv": 1839,
      "av_cli": 1840,
      "rgb": 1841,
      "_PRINT": 1842,
      "tif": 1843,
      "TP": 1844,
      "54": 1845,
      "sys": 1846,
      "Fa": 1847,
      "94": 1848,
      "_SH": 1849,
      "assert_": 1850,
      "pj": 1851,
      "buffer_": 1852,
      "vg": 1853,
      "ync": 1854,
      "_pixel": 1855,
      "_path": 1856,
      "No": 1857,
      "done": 1858,
      "text_": 1859,
      "_name": 1860,
      "filter_": 1861,
      "RES": 1862,
      "mm1": 1863,
      "tb": 1864,
      "local": 1865,
      "%[": 1866,
      "_U": 1867,
      "rosk": 1868,
      "'%": 1869,
      "MD_": 1870,
      "that": 1871,
      "duration": 1872,
      "rs": 1873,
      "_cmd": 1874,
      "Comp": 1875,
      "bdrv_": 1876,
      "eb": 1877,
      "ump": 1878,
      "ery": 1879,
      "PCI": 1880,
      "DB": 1881,
      "_ref": 1882,
      "ify": 1883,
      "ACK": 1884,
      "t_type": 1885,
      "DEBUG_": 1886,
      "EQ": 1887,
      "Pr": 1888,
      "weight": 1889,
      "errup": 1890,
      "21": 1891,
      "stamp": 1892,
      "_func_": 1893,
      "down": 1894,
      "acb": 1895,
      "move": 1896,
      "journ": 1897,
      "mc": 1898,
      "ring": 1899,
      "bits_": 1900,
      "notes": 1901,
      "ulong": 1902,
      "++]": 1903,
      "form": 1904,
      "SD": 1905,
      "erv": 1906,
      "(((": 1907,
      "_SET": 1908,
      "_idx": 1909,
      "data_size": 1910,
      "ake": 1911,
      "VC": 1912,
      "*)(": 1913,
      "_state": 1914,
      "wap": 1915,
      "%%\"": 1916,
      "roska": 1917,
      "T_F": 1918,
      "create": 1919,
      "_PROTO": 1920,
      "cor": 1921,
      "Bo": 1922,
      "ibu": 1923,
      "pal": 1924,
      "VL": 1925,
      "_filename": 1926,
      "coeffs": 1927,
      "QP": 1928,
      "iptor": 1929,
      "C_ID_": 1930,
      "bytestream2_get_": 1931,
      "0x3": 1932,
      "nam": 1933,
      "sel": 1934,
      "rence": 1935,
      "OL": 1936,
      "_bs_": 1937,
      "short": 1938,
      "key_": 1939,
      "atures": 1940,
      "bi": 1941,
      "slice": 1942,
      "ctl": 1943,
      "Byte": 1944,
      "sample_rate": 1945,
      "js": 1946,
      "VP": 1947,
      "oy": 1948,
      "ND_PRINT": 1949,
      "gn": 1950,
      "le32": 1951,
      "coded": 1952,
      ")[": 1953,
      "cach": 1954,
      "update_": 1955,
      "OB": 1956,
      "interrup": 1957,
      "Chan": 1958,
      "*++": 1959,
      "pol": 1960,
      "_cb": 1961,
      "enum": 1962,
      "MODE_": 1963,
      "__func_": 1964,
      "__func__": 1965,
      "old_": 1966,
      "AV_R": 1967,
      "mar": 1968,
      "error_set": 1969,
      "maker": 1970,
      "_mo": 1971,
      "resh": 1972,
      "int64": 1973,
      "_read_": 1974,
      "Output": 1975,
      "qedi": 1976,
      "default_": 1977,
      "wait": 1978,
      "ence": 1979,
      "mr": 1980,
      "snprintf": 1981,
      "orig": 1982,
      "bitmap": 1983,
      "pci": 1984,
      "pla": 1985,
      "_scal": 1986,
      "--------": 1987,
      "77": 1988,
      "mm2": 1989,
      "Lens": 1990,
      "makernotes": 1991,
      "serv": 1992,
      "pad": 1993,
      "Attr": 1994,
      "gf_bs_": 1995,
      "3_": 1996,
      "real": 1997,
      "aw": 1998,
      "Qu": 1999,
      "var_": 2000,
      "Can": 2001,
      "ffff": 2002,
      "OFF": 2003,
      "as_": 2004,
      "ment_": 2005,
      "frames": 2006,
      "02x": 2007,
      "Codec": 2008,
      "qdev": 2009,
      "CONFIG_": 2010,
      "255": 2011,
      "1024": 2012,
      "OF": 2013,
      "mutex": 2014,
      "buff": 2015,
      "33": 2016,
      "WN": 2017,
      "print": 2018,
      "child": 2019,
      "NDPI": 2020,
      "have": 2021,
      "mpeg": 2022,
      "fault": 2023,
      "queue_": 2024,
      "time_base": 2025,
      "HT": 2026,
      "vert": 2027,
      "cd": 2028,
      "ch_": 2029,
      "peg": 2030,
      "tcg_t": 2031,
      "ther": 2032,
      "ba": 2033,
      "now": 2034,
      "x4": 2035,
      "ug": 2036,
      "_min": 2037,
      "sition": 2038,
      "delay": 2039,
      "tab": 2040,
      "DPRINTF": 2041,
      "_pack": 2042,
      "edi_": 2043,
      "label": 2044,
      "mt_": 2045,
      "g_parser": 2046,
      "ste": 2047,
      "slot": 2048,
      "packet_": 2049,
      "inlink": 2050,
      "pool": 2051,
      "LAG": 2052,
      "mbol": 2053,
      "_region": 2054,
      "inode": 2055,
      "sed": 2056,
      "pix_fmt": 2057,
      "quant_": 2058,
      "dump": 2059,
      "tcg_gen": 2060,
      "cer": 2061,
      "BDR": 2062,
      "tain": 2063,
      "Count": 2064,
      "inline": 2065,
      "ped": 2066,
      "encoding": 2067,
      "or_": 2068,
      "loat": 2069,
      "Src": 2070,
      "_decode": 2071,
      "US_": 2072,
      "PCI_": 2073,
      "_PROTOCO": 2074,
      "medi": 2075,
      "Object": 2076,
      "EXT": 2077,
      "acc": 2078,
      "_ph": 2079,
      "Array": 2080,
      "RGB": 2081,
      "fc": 2082,
      "gp": 2083,
      "KEY": 2084,
      "_timer": 2085,
      "ts_": 2086,
      "04": 2087,
      "FIXME": 2088,
      "outlink": 2089,
      "fs_": 2090,
      "thod": 2091,
      "matroska": 2092,
      "box": 2093,
      "t2": 2094,
      "n_": 2095,
      "lat": 2096,
      "target": 2097,
      "VIDE": 2098,
      "net_": 2099,
      "_sock": 2100,
      "send_": 2101,
      "ti": 2102,
      "query": 2103,
      "_SUCCESS": 2104,
      "sz": 2105,
      "cur_": 2106,
      "mast": 2107,
      "extra": 2108,
      "lush": 2109,
      "rm": 2110,
      "pend": 2111,
      "(;": 2112,
      "uff": 2113,
      "NAME": 2114,
      "s1": 2115,
      "qui": 2116,
      "_bytes": 2117,
      "SCALE": 2118,
      "DEF": 2119,
      "_pk": 2120,
      "NAL": 2121,
      "VIDEO": 2122,
      "IFT": 2123,
      "op_": 2124,
      "BLOCK": 2125,
      "chroma_": 2126,
      "_picture": 2127,
      "sce": 2128,
      "88": 2129,
      "fifo": 2130,
      "().": 2131,
      "_thread": 2132,
      "message": 2133,
      "acce": 2134,
      "uvlinesize": 2135,
      "AV_LOG_DEBUG": 2136,
      "AUD": 2137,
      "QEMU": 2138,
      "audio_": 2139,
      "MI": 2140,
      "strdup": 2141,
      "BUFFER": 2142,
      "EK": 2143,
      "curr": 2144,
      "HO": 2145,
      "MEDI": 2146,
      "TRAC": 2147,
      "define": 2148,
      "sin": 2149,
      "to_": 2150,
      "ORMA": 2151,
      "mis": 2152,
      "dst_": 2153,
      "ai": 2154,
      "_frames": 2155,
      "DMA": 2156,
      "any": 2157,
      "Status": 2158,
      "_cur": 2159,
      "ister_": 2160,
      "_TYPE": 2161,
      "PR_": 2162,
      "mach": 2163,
      "EF": 2164,
      "_hand": 2165,
      "graph": 2166,
      "gain": 2167,
      "dire": 2168,
      "empty": 2169,
      "GA": 2170,
      "VIRT": 2171,
      "sele": 2172,
      ").": 2173,
      "Writ": 2174,
      "cluster": 2175,
      "tm": 2176,
      "ight_": 2177,
      "ING_": 2178,
      "29": 2179,
      "PS": 2180,
      "mult": 2181,
      "_scan": 2182,
      "payload": 2183,
      "high": 2184,
      "initial": 2185,
      "w2": 2186,
      "virtio_": 2187,
      "expected": 2188,
      "dist": 2189,
      "_fd": 2190,
      "phy": 2191,
      "vec_": 2192,
      "Tr": 2193,
      "_params": 2194,
      "_port": 2195,
      "_src": 2196,
      "Failed": 2197,
      "CHECK": 2198,
      "spin_": 2199,
      "port_": 2200,
      "FMT_": 2201,
      "uri": 2202,
      "_param": 2203,
      "ource": 2204,
      "Driver": 2205,
      "32_": 2206,
      "tcg_gen_": 2207,
      "_fin": 2208,
      "ild_": 2209,
      "FALSE": 2210,
      "stroy": 2211,
      "EXPECT_": 2212,
      "bh": 2213,
      "64_": 2214,
      "VAR": 2215,
      "malloc": 2216,
      "tensor": 2217,
      "\"<": 2218,
      "c1": 2219,
      "_fe": 2220,
      "user_": 2221,
      "g_free": 2222,
      "bdrv": 2223,
      "padd": 2224,
      "l1": 2225,
      "war": 2226,
      "anup": 2227,
      "_priv": 2228,
      "WARN": 2229,
      "journal": 2230,
      "response": 2231,
      "kvm_": 2232,
      "avpkt": 2233,
      "sid": 2234,
      "tcg_out_": 2235,
      "_mb": 2236,
      "ette": 2237,
      "task": 2238,
      "trace_": 2239,
      "Ne": 2240,
      "pixels": 2241,
      "[]": 2242,
      "error_re": 2243,
      "NONE": 2244,
      "Inter": 2245,
      "Q_": 2246,
      "matrix": 2247,
      "USB": 2248,
      "source": 2249,
      "glob": 2250,
      "ux": 2251,
      "x1": 2252,
      "57": 2253,
      "Cli": 2254,
      "contain": 2255,
      "sq": 2256,
      "512": 2257,
      "0x7": 2258,
      "WRITE": 2259,
      "_be": 2260,
      "!(": 2261,
      "AVFilter": 2262,
      "js_": 2263,
      "urb": 2264,
      "rent_": 2265,
      "gic": 2266,
      "wd": 2267,
      "INTR": 2268,
      "ning": 2269,
      "Res": 2270,
      "46": 2271,
      "syn": 2272,
      "LV": 2273,
      "lum": 2274,
      "ave_": 2275,
      "atom": 2276,
      "errors": 2277,
      "INTER": 2278,
      "Arg": 2279,
      "Memory": 2280,
      "pict_type": 2281,
      "h_": 2282,
      "sc_": 2283,
      "type_": 2284,
      "ls": 2285,
      "Channel": 2286,
      "us_": 2287,
      "usb": 2288,
      "limit": 2289,
      "zend_": 2290,
      "inst": 2291,
      "tcg_temp": 2292,
      "socket": 2293,
      "norm": 2294,
      "The": 2295,
      "AVFrame": 2296,
      "IM": 2297,
      "master": 2298,
      "DP": 2299,
      "Packet": 2300,
      "_pred": 2301,
      "Dis": 2302,
      "ioc": 2303,
      "_res": 2304,
      "SEEK": 2305,
      "led": 2306,
      "_skip": 2307,
      "Max": 2308,
      "ET": 2309,
      "compon": 2310,
      "PAR": 2311,
      "CODEC": 2312,
      "mm4": 2313,
      "part": 2314,
      "_FI": 2315,
      "FFMIN": 2316,
      "be32": 2317,
      "dule": 2318,
      "ES": 2319,
      "RAY": 2320,
      "visi": 2321,
      "parent": 2322,
      "context_": 2323,
      "ule": 2324,
      "POR": 2325,
      "cq": 2326,
      "le16": 2327,
      "OP_RE": 2328,
      "PRE": 2329,
      "sur": 2330,
      "TYPE": 2331,
      "MC": 2332,
      "ey": 2333,
      "reen": 2334,
      "rom_": 2335,
      "refe": 2336,
      "ee": 2337,
      "free_": 2338,
      "YTE": 2339,
      "ely": 2340,
      "WORD": 2341,
      "_per_": 2342,
      "cfg": 2343,
      "ise": 2344,
      "OBJ": 2345,
      "bytes_": 2346,
      "Id": 2347,
      "qemu_get_": 2348,
      "dict": 2349,
      "NC": 2350,
      "inc": 2351,
      "FA": 2352,
      "[-": 2353,
      "ps_dec": 2354,
      "H_": 2355,
      "fd_": 2356,
      "abort": 2357,
      "From": 2358,
      "_fa": 2359,
      "attribu": 2360,
      "trans": 2361,
      "spec": 2362,
      "connect": 2363,
      "bus_": 2364,
      "Init": 2365,
      "vol": 2366,
      "OMX_": 2367,
      "ument": 2368,
      "ERROR_": 2369,
      "rtl": 2370,
      "_set_": 2371,
      "og": 2372,
      "INDE": 2373,
      "gen_op": 2374,
      "s_addr": 2375,
      "motion_val": 2376,
      "ffset": 2377,
      "_tag": 2378,
      "Color": 2379,
      "_CODE": 2380,
      "fn": 2381,
      "QUI": 2382,
      "8x8": 2383,
      "stats": 2384,
      "PC_": 2385,
      "qedi_": 2386,
      "L2": 2387,
      "Po": 2388,
      "TCG": 2389,
      "_mv": 2390,
      "_tr": 2391,
      "Handle": 2392,
      "dy": 2393,
      "BL": 2394,
      "cord": 2395,
      "find": 2396,
      "_TRUE": 2397,
      "WARNING": 2398,
      "ORE": 2399,
      "chip": 2400,
      "eta": 2401,
      "lx": 2402,
      "Port": 2403,
      "internal": 2404,
      "Di": 2405,
      "STAT": 2406,
      "OC": 2407,
      "clear": 2408,
      "stop": 2409,
      "com": 2410,
      "NDPI_PROTOCO": 2411,
      "book": 2412,
      "print_": 2413,
      "Stride": 2414,
      "too": 2415,
      "DIS": 2416,
      "AMP": 2417,
      "elper": 2418,
      "njs_": 2419,
      "avail": 2420,
      "0x2": 2421,
      "ctory": 2422,
      "_func": 2423,
      "_lock": 2424,
      "ENT_": 2425,
      "name_": 2426,
      "signal": 2427,
      "virtio": 2428,
      "Virt": 2429,
      "proper": 2430,
      "region": 2431,
      "state_": 2432,
      "pe_": 2433,
      "_cr": 2434,
      "stream_index": 2435,
      "callback": 2436,
      "_pc": 2437,
      "cy": 2438,
      "pc_": 2439,
      "atio": 2440,
      "must": 2441,
      "unknown": 2442,
      "\"(": 2443,
      "TL": 2444,
      "_request": 2445,
      "i64": 2446,
      "vent": 2447,
      "complete": 2448,
      "eff": 2449,
      "fiel": 2450,
      "_field": 2451,
      "wra": 2452,
      "mm7": 2453,
      "ASE": 2454,
      "9999": 2455,
      "stem": 2456,
      "h264": 2457,
      "BPF_": 2458,
      "bc": 2459,
      "...": 2460,
      "elp": 2461,
      "59": 2462,
      "sequ": 2463,
      "reset": 2464,
      "WID": 2465,
      "gf_": 2466,
      "VALUE": 2467,
      "NEL": 2468,
      "Length": 2469,
      "42": 2470,
      "Class": 2471,
      "here": 2472,
      "ERR_": 2473,
      "event_": 2474,
      "decode_": 2475,
      "bs_": 2476,
      "x2": 2477,
      "yuv2": 2478,
      "LASS": 2479,
      "yy3": 2480,
      ",\"": 2481,
      "O_": 2482,
      "descriptor": 2483,
      "_mb_": 2484,
      "_str": 2485,
      "http": 2486,
      "gpr": 2487,
      "xml": 2488,
      "Client": 2489,
      "tlb": 2490,
      "AVCodec": 2491,
      "UNK": 2492,
      "_packet_": 2493,
      "Per": 2494,
      "video_": 2495,
      "bpp": 2496,
      "dct_": 2497,
      "heck": 2498,
      "WIDTH": 2499,
      "EP": 2500,
      "k_": 2501,
      "Is": 2502,
      "M_PI": 2503,
      "DEVICE_": 2504,
      "prefix": 2505,
      "_CHAN": 2506,
      "data_": 2507,
      "error_setg": 2508,
      "EXCP": 2509,
      "0xf": 2510,
      "mp_": 2511,
      "HA": 2512,
      "cat": 2513,
      "uc": 2514,
      "tcp": 2515,
      "SW": 2516,
      "ay": 2517,
      "Mag": 2518,
      "cbp": 2519,
      "rows": 2520,
      "dev_": 2521,
      "OP_REQUI": 2522,
      "ALIG": 2523,
      "Mo": 2524,
      "\\\"%": 2525,
      "log2": 2526,
      "nz": 2527,
      "_SP": 2528,
      "coef": 2529,
      "avio_r": 2530,
      "_PC": 2531,
      "look": 2532,
      "Time": 2533,
      "no_": 2534,
      "luma": 2535,
      "47": 2536,
      "ARCH": 2537,
      "avio_": 2538,
      "ports": 2539,
      "BDRV": 2540,
      "nullptr": 2541,
      "abs": 2542,
      "release": 2543,
      "sym": 2544,
      "_FRA": 2545,
      "TF_": 2546,
      "pointer": 2547,
      "_add": 2548,
      "metadata": 2549,
      "lex": 2550,
      "r1": 2551,
      "_pa": 2552,
      "lib": 2553,
      "tach": 2554,
      "tern": 2555,
      "line_": 2556,
      "display": 2557,
      "LIB": 2558,
      "second": 2559,
      "known": 2560,
      "on_": 2561,
      "Params": 2562,
      "TER": 2563,
      "cmd_": 2564,
      "_PIC": 2565,
      "Write": 2566,
      "++,": 2567,
      "pps": 2568,
      "active": 2569,
      "nb_samples": 2570,
      "LOAD": 2571,
      "target_ulong": 2572,
      "build_": 2573,
      ">\\": 2574,
      "Ref": 2575,
      "pat": 2576,
      "cursor": 2577,
      "Config": 2578,
      "MAP": 2579,
      "exec": 2580,
      "EV": 2581,
      "Quant": 2582,
      "_parse": 2583,
      "Sample": 2584,
      "scale_": 2585,
      "ASSERT_TRUE": 2586,
      "pipe": 2587,
      "pred_": 2588,
      "Z_": 2589,
      "aio": 2590,
      "ciph": 2591,
      "side": 2592,
      "_PRE": 2593,
      "should": 2594,
      "gu": 2595,
      "func": 2596,
      "pect_": 2597,
      "Table": 2598,
      "q_": 2599,
      "i2": 2600,
      "Magick": 2601,
      "If": 2602,
      "We": 2603,
      "_cache": 2604,
      "ner": 2605,
      "jump": 2606,
      "allocate": 2607,
      "Test": 2608,
      "_PTR": 2609,
      "SET_": 2610,
      "irst": 2611,
      "ication": 2612,
      "});": 2613,
      "frame_size": 2614,
      "Key": 2615,
      "_close": 2616,
      "OR_": 2617,
      ">>=": 2618,
      "_STATUS_": 2619,
      "ADDR": 2620,
      "prob": 2621,
      "yy56": 2622,
      "NOT_": 2623,
      "Mode": 2624,
      "qx": 2625,
      "mm5": 2626,
      "MPEG": 2627,
      "_back": 2628,
      "AM_": 2629,
      "div": 2630,
      "AUDIO": 2631,
      "hs": 2632,
      "use_": 2633,
      "cache_": 2634,
      "_unlock": 2635,
      "QUE": 2636,
      "LAY": 2637,
      "alg": 2638,
      "--)": 2639,
      "qc": 2640,
      "H264": 2641,
      "hi": 2642,
      "pipe_": 2643,
      "imple": 2644,
      "IMM": 2645,
      "iscsi": 2646,
      "cel": 2647,
      "Offset": 2648,
      "_band": 2649,
      "'/": 2650,
      "ameters": 2651,
      "END_": 2652,
      "symbol": 2653,
      "CODEC_ID_": 2654,
      "_reset": 2655,
      "Fo": 2656,
      "doc": 2657,
      "_fifo": 2658,
      "_register": 2659,
      "Check": 2660,
      "ose": 2661,
      "model": 2662,
      "eded": 2663,
      "ssl": 2664,
      "error_report": 2665,
      "Se": 2666,
      "dat": 2667,
      "ZE_": 2668,
      "ont": 2669,
      "async": 2670,
      "guest": 2671,
      "yy4": 2672,
      "Event": 2673,
      "66": 2674,
      "other": 2675,
      "begin": 2676,
      "PV": 2677,
      "dts": 2678,
      "08x": 2679,
      "0x4": 2680,
      "inputs": 2681,
      "table_buf": 2682,
      "OUT": 2683,
      "inet_": 2684,
      "scan8": 2685,
      "_x": 2686,
      "fer": 2687,
      "art": 2688,
      "flat": 2689,
      "sch": 2690,
      "profile": 2691,
      "gpu": 2692,
      "cpu_to_": 2693,
      "remain": 2694,
      "Ele": 2695,
      "batch": 2696,
      "OP1": 2697,
      "TMP1": 2698,
      "INDEX": 2699,
      "buf_": 2700,
      "COMP": 2701,
      "Cur": 2702,
      "clock": 2703,
      "Video": 2704,
      ")\",": 2705,
      "_proto": 2706,
      "mm3": 2707,
      "vf": 2708,
      "000000": 2709,
      "_y": 2710,
      "got_": 2711,
      ")>>": 2712,
      "tw": 2713,
      "aio_": 2714,
      "timestamp": 2715,
      "_sy": 2716,
      "x0": 2717,
      "protocol": 2718,
      "87": 2719,
      "IST": 2720,
      "dentry": 2721,
      "o_": 2722,
      "FRA": 2723,
      "_FUNC": 2724,
      "ash": 2725,
      "access": 2726,
      "corr": 2727,
      "strnc": 2728,
      "sector_num": 2729,
      "DIR": 2730,
      "reference": 2731,
      "ish": 2732,
      "FT": 2733,
      "idct_": 2734,
      "ABLE": 2735,
      "BE": 2736,
      "Ite": 2737,
      "]))": 2738,
      "_flush": 2739,
      "root": 2740,
      "g_assert": 2741,
      "New": 2742,
      "CS": 2743,
      "Ver": 2744,
      "UAR": 2745,
      "SION": 2746,
      "bm": 2747,
      "lik": 2748,
      "magic": 2749,
      "likely": 2750,
      "v2": 2751,
      "_type_": 2752,
      "SCSI": 2753,
      "EA": 2754,
      "Entry": 2755,
      "but": 2756,
      "TAIL": 2757,
      "files": 2758,
      "Node": 2759,
      "krb": 2760,
      "do_": 2761,
      "hci": 2762,
      "bad": 2763,
      "1F": 2764,
      "right": 2765,
      "u64": 2766,
      "End": 2767,
      "o_cpu": 2768,
      "ssize_t": 2769,
      "asf": 2770,
      "encryp": 2771,
      "bar": 2772,
      "ard_": 2773,
      "ization": 2774,
      "imp": 2775,
      "headers": 2776,
      "ATE_": 2777,
      "EIO": 2778,
      "_bo": 2779,
      "unlock": 2780,
      "palette": 2781,
      "tect": 2782,
      "sk_": 2783,
      "BUF": 2784,
      "TAG": 2785,
      "nb_sectors": 2786,
      "a2": 2787,
      "memory_region": 2788,
      "_FA": 2789,
      "av_mallocz": 2790,
      "_range": 2791,
      "Could": 2792,
      "(\"\\": 2793,
      "ailab": 2794,
      "token": 2795,
      "ready": 2796,
      "({": 2797,
      "5_": 2798,
      "cluster_": 2799,
      "ndpi_str": 2800,
      "encoder": 2801,
      "get_bits_": 2802,
      "ratio": 2803,
      "_plan": 2804,
      "sub_": 2805,
      "confi": 2806,
      "dc_": 2807,
      "GR": 2808,
      "5F": 2809,
      "Lin": 2810,
      "v4": 2811,
      "fx": 2812,
      "mm6": 2813,
      "Ro": 2814,
      "AVCodecContext": 2815,
      "p2": 2816,
      "Address": 2817,
      "saction": 2818,
      "_cast": 2819,
      "PL": 2820,
      "plane_": 2821,
      "Item": 2822,
      "Or": 2823,
      "RAN": 2824,
      "decoder": 2825,
      "_length": 2826,
      "BYTE": 2827,
      "sync": 2828,
      "SLJIT_MEM": 2829,
      "_for": 2830,
      "cleanup": 2831,
      "opt_": 2832,
      "pm": 2833,
      "save": 2834,
      "fds": 2835,
      "ACH": 2836,
      "cla": 2837,
      "AVE_": 2838,
      "TS_": 2839,
      "HEADER": 2840,
      "register_": 2841,
      "src1": 2842,
      "3F": 2843,
      "Base": 2844,
      "*=": 2845,
      "fil": 2846,
      "ble": 2847,
      "AC_": 2848,
      "hd": 2849,
      "tty": 2850,
      "Map": 2851,
      "Option": 2852,
      "ger": 2853,
      "encoded": 2854,
      "Create": 2855,
      "Lum": 2856,
      "SLJIT_MEM1": 2857,
      "ULL": 2858,
      "TensorShape": 2859,
      "Handler": 2860,
      "uint32": 2861,
      "fore": 2862,
      "NC_": 2863,
      "disable": 2864,
      "_memory": 2865,
      "make": 2866,
      "get_buffer": 2867,
      "RETUR": 2868,
      "NOP": 2869,
      "_scale": 2870,
      "_TI": 2871,
      "*/,": 2872,
      "v1": 2873,
      "our": 2874,
      "ong": 2875,
      "availab": 2876,
      "s2": 2877,
      "fol": 2878,
      "nal_": 2879,
      "arg1": 2880,
      "_pred_": 2881,
      "PJ": 2882,
      "aved": 2883,
      "mb_width": 2884,
      "spapr": 2885,
      "rc_": 2886,
      "SS_": 2887,
      "139": 2888,
      "SED": 2889,
      "ft": 2890,
      "0x80": 2891,
      "fw": 2892,
      "rv": 2893,
      "ATE": 2894,
      "flush": 2895,
      "_dis": 2896,
      "px": 2897,
      "man": 2898,
      "://": 2899,
      "LIST_": 2900,
      "mutt_": 2901,
      "gy": 2902,
      "round": 2903,
      "netdev": 2904,
      "ugh": 2905,
      "ync_": 2906,
      "vc1": 2907,
      "mix": 2908,
      "_tmp": 2909,
      "unit": 2910,
      "_msg": 2911,
      "pdu": 2912,
      "stre": 2913,
      "_n": 2914,
      "imm": 2915,
      "predi": 2916,
      "]));": 2917,
      "_Set": 2918,
      "yy16": 2919,
      "qemu_op": 2920,
      "av_clip": 2921,
      "420": 2922,
      "offs": 2923,
      "_int_": 2924,
      "_H": 2925,
      "sfer": 2926,
      "wrap": 2927,
      "Gpu": 2928,
      "SLJIT_MOV": 2929,
      "Q30": 2930,
      "codes": 2931,
      "TCP": 2932,
      "********": 2933,
      "stor": 2934,
      "mb_xy": 2935,
      "MEDIA": 2936,
      "E_TYPE_": 2937,
      "ty_": 2938,
      "cf": 2939,
      "2F": 2940,
      "pitch": 2941,
      "OU": 2942,
      "Do": 2943,
      "Tran": 2944,
      "OMX": 2945,
      "setting": 2946,
      "LONG": 2947,
      "FS": 2948,
      "just": 2949,
      "allow": 2950,
      "global": 2951,
      "]]": 2952,
      "TAB": 2953,
      "XML_": 2954,
      "serial": 2955,
      "DT_": 2956,
      "remo": 2957,
      "keys": 2958,
      "select": 2959,
      "0000000": 2960,
      "_ctx": 2961,
      "_input_": 2962,
      "strerror": 2963,
      "elem": 2964,
      "machine": 2965,
      "atrix": 2966,
      "archive_": 2967,
      "X86": 2968,
      "bitstream": 2969,
      "cpu_R": 2970,
      "d_data": 2971,
      "TIFF": 2972,
      "_cl": 2973,
      "vt": 2974,
      "_SY": 2975,
      "codebook": 2976,
      "p1": 2977,
      "SSL_": 2978,
      "ical": 2979,
      "63": 2980,
      ".%": 2981,
      "Def": 2982,
      "SIG": 2983,
      "lookup": 2984,
      "RES_": 2985,
      "(\"/": 2986,
      "class": 2987,
      "emul": 2988,
      "TED": 2989,
      "COD": 2990,
      "Sub": 2991,
      "mid": 2992,
      "header_": 2993,
      "pdev": 2994,
      "NUM": 2995,
      "NO_": 2996,
      "ABS": 2997,
      "NAM": 2998,
      "*/\\": 2999,
      "v6": 3000,
      "390": 3001,
      "wr": 3002,
      "hid": 3003,
      "68": 3004,
      "_PO": 3005,
      "VLC_": 3006,
      "~(": 3007,
      "g_assert_": 3008,
      "available": 3009,
      "Flags": 3010,
      "enc_": 3011,
      "sequence": 3012,
      "bg": 3013,
      "config_": 3014,
      "ian": 3015,
      "msi": 3016,
      "aspect_": 3017,
      "rtl8x": 3018,
      "_out": 3019,
      "gest": 3020,
      "rtl8xxx": 3021,
      "AULT": 3022,
      "ient": 3023,
      "tom": 3024,
      "scsi": 3025,
      "ixed": 3026,
      "Chr": 3027,
      "needed": 3028,
      "full": 3029,
      "Log": 3030,
      "SER": 3031,
      "mh": 3032,
      "XXX": 3033,
      "FFMAX": 3034,
      "SEEK_SET": 3035,
      "MT": 3036,
      "gd_": 3037,
      "vid": 3038,
      "95": 3039,
      "argc": 3040,
      "DEVICE": 3041,
      "_slice": 3042,
      "NT": 3043,
      "features": 3044,
      "yy18": 3045,
      "tra": 3046,
      "tv": 3047,
      "GFP_": 3048,
      "seto": 3049,
      "DEC": 3050,
      "best": 3051,
      "_test": 3052,
      "ifier": 3053,
      "!\\": 3054,
      "_cle": 3055,
      "URE": 3056,
      "_fprintf": 3057,
      "oid": 3058,
      "channel_layout": 3059,
      "ank": 3060,
      "rece": 3061,
      "_model": 3062,
      "decoded": 3063,
      "function": 3064,
      "ZER": 3065,
      "fm": 3066,
      "iler": 3067,
      "This": 3068,
      "ling": 3069,
      "0x10": 3070,
      ")){": 3071,
      "ELD": 3072,
      "08": 3073,
      "search": 3074,
      "Of": 3075,
      "_input": 3076,
      "509": 3077,
      "vga": 3078,
      "ASE_": 3079,
      "system": 3080,
      "_mask": 3081,
      "SE_": 3082,
      "sb_": 3083,
      "non_": 3084,
      "interrupt": 3085,
      "01": 3086,
      "[%": 3087,
      "leg": 3088,
      "RAM": 3089,
      "Text": 3090,
      "_value": 3091,
      "wb": 3092,
      "ite_": 3093,
      "Region": 3094,
      "FilterSize": 3095,
      "ff_d": 3096,
      "element": 3097,
      "LT_": 3098,
      "dyn": 3099,
      "CLASS": 3100,
      "VT": 3101,
      "_shape": 3102,
      "_match": 3103,
      "CRYP": 3104,
      "Enc": 3105,
      "FLAG_": 3106,
      "_regs": 3107,
      "msg_": 3108,
      "OBJECT": 3109,
      "alize": 3110,
      "codec_type": 3111,
      "sockaddr": 3112,
      "will": 3113,
      "_FIL": 3114,
      "_new": 3115,
      "tswap": 3116,
      "SQ": 3117,
      "IOC": 3118,
      "nc_": 3119,
      "pf": 3120,
      "dum": 3121,
      "alt": 3122,
      "fill": 3123,
      "ORE_": 3124,
      "_factor": 3125,
      "ative": 3126,
      "does": 3127,
      "vlan": 3128,
      "ORY": 3129,
      "GP": 3130,
      "arse": 3131,
      "iov_": 3132,
      "AV_RL": 3133,
      "2000": 3134,
      "_debug": 3135,
      "SLJIT_IMM": 3136,
      "SOCK": 3137,
      "cop": 3138,
      "LOAT": 3139,
      "_FLAG": 3140,
      "LEM": 3141,
      "arg2": 3142,
      "offseto": 3143,
      "offsetof": 3144,
      "tree": 3145,
      "nto": 3146,
      "TARGET_PAGE_": 3147,
      "SPR_": 3148,
      "qdict_": 3149,
      "method": 3150,
      "scrip": 3151,
      "extradata_size": 3152,
      "Unknown": 3153,
      "process": 3154,
      "');": 3155,
      "WIN": 3156,
      "PRIx": 3157,
      "_PAT": 3158,
      "buffers": 3159,
      "fL": 3160,
      "y1": 3161,
      "FFFF": 3162,
      "HC": 3163,
      "WER": 3164,
      "/%": 3165,
      "reg_": 3166,
      "AL_": 3167,
      "_SHIFT": 3168,
      "rsp": 3169,
      "compute": 3170,
      "erver": 3171,
      "msr": 3172,
      "rw": 3173,
      "driver": 3174,
      "show": 3175,
      "crypto": 3176,
      "263": 3177,
      "aspect_ratio": 3178,
      "_from_": 3179,
      "golo": 3180,
      "USE_": 3181,
      "strm": 3182,
      "OFFSET": 3183,
      "CHAR": 3184,
      "UART_": 3185,
      "_map": 3186,
      "NV": 3187,
      "HOST_": 3188,
      "connection": 3189,
      "XF": 3190,
      "ITY": 3191,
      "ECTOR": 3192,
      "rp": 3193,
      "attribute": 3194,
      "JS": 3195,
      "Mpeg": 3196,
      "IF_": 3197,
      "Sock": 3198,
      "tp_": 3199,
      "mer": 3200,
      "mb_height": 3201,
      "CC_": 3202,
      "itor": 3203,
      "strip": 3204,
      "lf": 3205,
      "_float": 3206,
      "):": 3207,
      "lit": 3208,
      "MUL": 3209,
      "REE": 3210,
      "ress_": 3211,
      "<<=": 3212,
      "Min": 3213,
      "load_": 3214,
      "freq": 3215,
      "ot_": 3216,
      "ARD": 3217,
      "Scal": 3218,
      "UMP": 3219,
      "j_": 3220,
      "peer": 3221,
      "be16": 3222,
      "each": 3223,
      "resol": 3224,
      "tv_": 3225,
      "src2": 3226,
      "outputs": 3227,
      "ove": 3228,
      "ced": 3229,
      "Net": 3230,
      "_STATE_": 3231,
      "ang": 3232,
      "ass": 3233,
      "first_": 3234,
      "scratch": 3235,
      "Fun": 3236,
      "ptr_t": 3237,
      "_find_": 3238,
      "RR": 3239,
      "]];": 3240,
      "dec_": 3241,
      "MEDIA_TYPE_": 3242,
      "_req": 3243,
      "AP_": 3244,
      "b_size": 3245,
      "_BIT": 3246,
      "structure": 3247,
      "ONL": 3248,
      "nl": 3249,
      "x86": 3250,
      "pending": 3251,
      "REGIST": 3252,
      "dpp": 3253,
      "uw": 3254,
      "AVMEDIA_TYPE_": 3255,
      "STACK": 3256,
      "OPT_": 3257,
      "nb_streams": 3258,
      "FP": 3259,
      "score": 3260,
      "evel": 3261,
      "Focal": 3262,
      "E1000": 3263,
      "HW": 3264,
      "ten": 3265,
      "op2": 3266,
      "INIT_": 3267,
      "und_": 3268,
      "memcmp": 3269,
      "guage": 3270,
      "listen": 3271,
      "instance": 3272,
      "8_t": 3273,
      "wer": 3274,
      "127": 3275,
      "NB": 3276,
      "lun": 3277,
      "rdma": 3278,
      "bands": 3279,
      "compression": 3280,
      "snd_": 3281,
      "stere": 3282,
      "_put": 3283,
      "u16": 3284,
      "LOGV": 3285,
      "copy_": 3286,
      "men": 3287,
      "Que": 3288,
      "_string": 3289,
      "apic": 3290,
      "TODO": 3291,
      "_pkt": 3292,
      "T0": 3293,
      "cm": 3294,
      "mb_stride": 3295,
      "XML_Set": 3296,
      "ich": 3297,
      "jh": 3298,
      "reshold": 3299,
      "compat": 3300,
      "LIT": 3301,
      "ioctl": 3302,
      "ARRAY": 3303,
      "PUT_": 3304,
      "_start": 3305,
      "SC_": 3306,
      "ATION": 3307,
      "Bits": 3308,
      "_PICTUR": 3309,
      "200": 3310,
      "est_": 3311,
      "surface": 3312,
      "_temp": 3313,
      "prev_": 3314,
      "PRId": 3315,
      "atomic": 3316,
      "('": 3317,
      "kvm": 3318,
      "Pre": 3319,
      "upper": 3320,
      "__put_": 3321,
      "_CPU": 3322,
      "esp": 3323,
      "overflow": 3324,
      ")];": 3325,
      "HAVE_": 3326,
      "sical": 3327,
      "CF": 3328,
      "hal": 3329,
      "nnz": 3330,
      "_text": 3331,
      "pg": 3332,
      "s_size": 3333,
      "push": 3334,
      "Queue": 3335,
      "INT32": 3336,
      "_header": 3337,
      "bd_": 3338,
      "don": 3339,
      "User": 3340,
      "CD": 3341,
      ">::": 3342,
      "after": 3343,
      "cc_": 3344,
      "attach": 3345,
      "fh": 3346,
      "_slice_": 3347,
      "BlockDriver": 3348,
      "Width": 3349,
      "vb": 3350,
      "Message": 3351,
      "__put_user": 3352,
      "qemu_put_": 3353,
      "ine_": 3354,
      "UND": 3355,
      "VE": 3356,
      "equal": 3357,
      "thing": 3358,
      "udio": 3359,
      "3D": 3360,
      "layer": 3361,
      "ob": 3362,
      "kfree": 3363,
      "BR": 3364,
      "ff_h": 3365,
      "AV_PIX_FMT_YUV": 3366,
      "foo": 3367,
      "ram_size": 3368,
      "index_": 3369,
      "ior": 3370,
      "pass": 3371,
      "ial_": 3372,
      "Var": 3373,
      "timeout": 3374,
      "client_": 3375,
      "qiov": 3376,
      "gram": 3377,
      "GTH": 3378,
      "_cnt": 3379,
      "compiler": 3380,
      "action": 3381,
      "avg": 3382,
      "_filter_": 3383,
      "fra": 3384,
      "size_": 3385,
      "_phy": 3386,
      "74": 3387,
      "AST": 3388,
      "LENGTH": 3389,
      "qxl": 3390,
      "buffer_size": 3391,
      "_FALSE": 3392,
      "_COMP": 3393,
      "ae": 3394,
      "total_": 3395,
      "_pixels": 3396,
      "BitContext": 3397,
      "6_": 3398,
      "ivate": 3399,
      "OPY": 3400,
      "lc": 3401,
      ")),": 3402,
      "value_": 3403,
      "segment": 3404,
      "FILE": 3405,
      "drop": 3406,
      "counter": 3407,
      "imit": 3408,
      "position": 3409,
      "tail": 3410,
      ")/": 3411,
      "ZERO": 3412,
      "8139": 3413,
      "_fmt_": 3414,
      "32_to_cpu": 3415,
      "vlc_": 3416,
      "TfL": 3417,
      "cred": 3418,
      "prec": 3419,
      "TfLite": 3420,
      "ory_": 3421,
      "pin": 3422,
      "t3": 3423,
      "=(": 3424,
      "SV": 3425,
      "lic": 3426,
      "pdate": 3427,
      "'/')": 3428,
      "TMP2": 3429,
      "bb": 3430,
      "iew": 3431,
      "job": 3432,
      "e1000": 3433,
      "_tensor": 3434,
      "Level": 3435,
      "Comm": 3436,
      "elements": 3437,
      "dw": 3438,
      "av_clip_": 3439,
      "dimension": 3440,
      "va_": 3441,
      "NET": 3442,
      "sprintf": 3443,
      "usage": 3444,
      "sample_": 3445,
      "\"/": 3446,
      "dest_": 3447,
      "ACCE": 3448,
      "meta": 3449,
      "AMPLE_": 3450,
      "53": 3451,
      "than": 3452,
      "ray_": 3453,
      "a1": 3454,
      "REF": 3455,
      "OUT_": 3456,
      "vd": 3457,
      "GIC": 3458,
      "u4": 3459,
      "requi": 3460,
      "opy": 3461,
      "static_cast": 3462,
      "MIP": 3463,
      "pthread": 3464,
      "check_": 3465,
      "xm": 3466,
      "EE": 3467,
      "CPUState": 3468,
      "9F": 3469,
      "ls_": 3470,
      "Range": 3471,
      "SUB": 3472,
      "_to_be": 3473,
      "On": 3474,
      "AV_CODE": 3475,
      "vnc_": 3476,
      "REAM": 3477,
      "ured": 3478,
      "saddr": 3479,
      "QTAIL": 3480,
      "rever": 3481,
      "compress": 3482,
      "sent_": 3483,
      "language": 3484,
      "_code": 3485,
      "KERNEL": 3486,
      "Number": 3487,
      "422": 3488,
      "sct": 3489,
      "screen": 3490,
      "fast": 3491,
      "wait_": 3492,
      "storage": 3493,
      "_mov": 3494,
      "ARG": 3495,
      "0x01": 3496,
      "CL": 3497,
      "VAR_": 3498,
      "me_": 3499,
      "inet": 3500,
      "av_re": 3501,
      "Alloc": 3502,
      "RESS": 3503,
      "AV_LOG_WARNING": 3504,
      "spi": 3505,
      "REG_a": 3506,
      "g_assert_cmp": 3507,
      "SA": 3508,
      "consum": 3509,
      "skip_bits": 3510,
      "TS_VALUE": 3511,
      "ONLY": 3512,
      "unlikely": 3513,
      "more": 3514,
      "CODEC_FLAG_": 3515,
      "Rect": 3516,
      "lon": 3517,
      "tk": 3518,
      "IVE_": 3519,
      "NOPTS_VALUE": 3520,
      "ap_": 3521,
      "pkt_": 3522,
      "CT_": 3523,
      "support": 3524,
      "EncContext": 3525,
      "rec": 3526,
      "inser": 3527,
      "array_": 3528,
      "AV_NOPTS_VALUE": 3529,
      "late": 3530,
      "_matrix": 3531,
      "mu": 3532,
      "mod": 3533,
      "_desc": 3534,
      "IRQ": 3535,
      "fdctrl": 3536,
      "PRId64": 3537,
      "CC": 3538,
      "](": 3539,
      "_first": 3540,
      "col_": 3541,
      "_REG": 3542,
      "l2_": 3543,
      "INIT": 3544,
      "aa": 3545,
      "refcount_": 3546,
      "WA": 3547,
      "reader": 3548,
      "cpu_to_be": 3549,
      "rl_": 3550,
      "stereo": 3551,
      "allback": 3552,
      "_SET_": 3553,
      "_create": 3554,
      "elf": 3555,
      "Argument": 3556,
      "Bytes": 3557,
      "Audio": 3558,
      "dims": 3559,
      "remote": 3560,
      "allocation": 3561,
      "For": 3562,
      "abil": 3563,
      "OPEN": 3564,
      "MMU": 3565,
      "watch": 3566,
      "AV_PICTUR": 3567,
      "present": 3568,
      "zip": 3569,
      "module": 3570,
      "adap": 3571,
      "VERSION": 3572,
      "red_": 3573,
      "bits_per_": 3574,
      "Box": 3575,
      "KEY_": 3576,
      "AUTH": 3577,
      "Thread": 3578,
      "igr": 3579,
      "vari": 3580,
      "self": 3581,
      "MP_": 3582,
      "interface": 3583,
      "MK": 3584,
      "_width": 3585,
      "remove": 3586,
      "HER": 3587,
      "_STATUS": 3588,
      "pci_dev": 3589,
      "52": 3590,
      "0xffff": 3591,
      "UNKNO": 3592,
      "nv": 3593,
      "_fail": 3594,
      "As": 3595,
      "*((": 3596,
      "SSL": 3597,
      "LP": 3598,
      "src_y": 3599,
      "tit": 3600,
      "url_f": 3601,
      "LED": 3602,
      "was": 3603,
      "AV_PICTURE_TYPE_": 3604,
      "MAR": 3605,
      "IDevice": 3606,
      "CODE_": 3607,
      "Parse": 3608,
      "LINE": 3609,
      "non_zero": 3610,
      "_write": 3611,
      "EXTRAC": 3612,
      "strncmp": 3613,
      "parent_": 3614,
      "QIO": 3615,
      "_SC": 3616,
      "casecmp": 3617,
      "pck": 3618,
      "ch_data": 3619,
      "generic": 3620,
      "INT_MAX": 3621,
      "integ": 3622,
      "_tx": 3623,
      "creen": 3624,
      "0x20": 3625,
      "gid": 3626,
      "private_": 3627,
      "444": 3628,
      "thro": 3629,
      "extension": 3630,
      "energy": 3631,
      "_hdr": 3632,
      "y2": 3633,
      "_tra": 3634,
      "84": 3635,
      "exten": 3636,
      "4x4": 3637,
      "printk": 3638,
      "s_count": 3639,
      "hc": 3640,
      "sprite_": 3641,
      "HI": 3642,
      "big": 3643,
      "backing": 3644,
      "sic": 3645,
      "yy17": 3646,
      "tmp2": 3647,
      "ports_": 3648,
      "accept": 3649,
      "_CC": 3650,
      "uwsg": 3651,
      "_FP": 3652,
      "patch": 3653,
      "GET": 3654,
      "MSG_": 3655,
      "append": 3656,
      "fr": 3657,
      "nr_": 3658,
      "0x0000": 3659,
      "_FUNCTION": 3660,
      "ACE": 3661,
      "notify": 3662,
      "reserv": 3663,
      "ASSERT": 3664,
      "cipher": 3665,
      "vhost_": 3666,
      "Socket": 3667,
      "AV_LOG_INFO": 3668,
      "ON_": 3669,
      "tc_": 3670,
      "InvalidArgument": 3671,
      "bi_": 3672,
      "unused": 3673,
      "av_get_": 3674,
      "Sl": 3675,
      "MODE": 3676,
      "record": 3677,
      "delete": 3678,
      "asso": 3679,
      "rule": 3680,
      "Alpha": 3681,
      "_dir": 3682,
      "heap": 3683,
      "create_": 3684,
      "compose": 3685,
      "when": 3686,
      "crypt_": 3687,
      "v9": 3688,
      "vc_": 3689,
      "PP": 3690,
      "TX": 3691,
      "PRIx64": 3692,
      "----------------": 3693,
      "nodes": 3694,
      "XML_P": 3695,
      "bot": 3696,
      "program": 3697,
      "Rem": 3698,
      "AVStream": 3699,
      "_BLOCK": 3700,
      "elper_": 3701,
      "jit_": 3702,
      "vcpu": 3703,
      "golomb": 3704,
      "Line": 3705,
      "p_s": 3706,
      "_clock": 3707,
      "_pol": 3708,
      "ws": 3709,
      "_run": 3710,
      "_blocks": 3711,
      "weight_": 3712,
      "==,": 3713,
      "term": 3714,
      "same": 3715,
      "fdt": 3716,
      "etadata": 3717,
      "Float": 3718,
      "API": 3719,
      "already": 3720,
      "igno": 3721,
      "edia": 3722,
      "EXTRACT_": 3723,
      "82": 3724,
      "ALLOC": 3725,
      "WB": 3726,
      "3d": 3727,
      "gif": 3728,
      "cblk": 3729,
      "dn": 3730,
      "mac_": 3731,
      "Raw": 3732,
      "_open": 3733,
      "_clust": 3734,
      ")-": 3735,
      "vsk": 3736,
      "Ve": 3737,
      "could": 3738,
      "remaining": 3739,
      "_blk": 3740,
      "buck": 3741,
      "0xF": 3742,
      "destroy": 3743,
      "LU": 3744,
      "huff": 3745,
      "_pix": 3746,
      "ily": 3747,
      "Struct": 3748,
      "ry": 3749,
      "exit_": 3750,
      "MB_TYPE_": 3751,
      "ui": 3752,
      "active_": 3753,
      "ted_": 3754,
      "HTTP": 3755,
      "names": 3756,
      "JP": 3757,
      "pv": 3758,
      "MAP_": 3759,
      "block_size": 3760,
      "monitor": 3761,
      "report": 3762,
      "crypt": 3763,
      "samp": 3764,
      "uma": 3765,
      "c2": 3766,
      "Update": 3767,
      "06": 3768,
      "URE_": 3769,
      "fl6": 3770,
      "INTRA": 3771,
      "operand": 3772,
      "block_index": 3773,
      "unit_": 3774,
      "','": 3775,
      "Vector": 3776,
      "ali": 3777,
      "Version": 3778,
      "conver": 3779,
      "movie": 3780,
      "UPPOR": 3781,
      "unnel": 3782,
      "EXT_": 3783,
      "bias": 3784,
      "cond_": 3785,
      "cols": 3786,
      "USB_": 3787,
      "GFP_KERNEL": 3788,
      "Copy": 3789,
      "uni": 3790,
      "picref": 3791,
      "av_str": 3792,
      "abi_": 3793,
      "peat": 3794,
      "layout_": 3795,
      "ethod": 3796,
      "hdev": 3797,
      "y0": 3798,
      "omap_": 3799,
      "_bh": 3800,
      "lower": 3801,
      "Param": 3802,
      "default_ports": 3803,
      "OP_REQUIRES_": 3804,
      "transaction": 3805,
      "av_d": 3806,
      "Conne": 3807,
      "KERN_": 3808,
      "avr": 3809,
      "ORMAT_": 3810,
      "_pool": 3811,
      "\":": 3812,
      "allocated": 3813,
      "tick": 3814,
      "post": 3815,
      "gf_bs_read": 3816,
      "&(": 3817,
      "TRO": 3818,
      "simple": 3819,
      "cul": 3820,
      "Not": 3821,
      "ACE_": 3822,
      "_TOP": 3823,
      "vma": 3824,
      "transp": 3825,
      "Request": 3826,
      "cook": 3827,
      "unlock_": 3828,
      "previo": 3829,
      "visitor": 3830,
      "mobi_": 3831,
      "quantized": 3832,
      "PIX_FMT_YUV": 3833,
      "DIRE": 3834,
      "ACCESS": 3835,
      "interla": 3836,
      "MSR_": 3837,
      "yy2": 3838,
      "pict": 3839,
      "AV_RB": 3840,
      "expr": 3841,
      "_print": 3842,
      "changed": 3843,
      "OT_": 3844,
      "_PER": 3845,
      "DG": 3846,
      "Bitstream": 3847,
      "no_master": 3848,
      "Slice": 3849,
      "GEN": 3850,
      "ACKE": 3851,
      "Dim": 3852,
      "phys_addr": 3853,
      "dent": 3854,
      "rout": 3855,
      "quest_": 3856,
      "virtio_gpu": 3857,
      "_dim": 3858,
      "MpegEncContext": 3859,
      "UINT": 3860,
      "may": 3861,
      "buf1": 3862,
      "meg": 3863,
      "ndpi_build_": 3864,
      "ndpi_build_default_ports": 3865,
      "diag": 3866,
      "lz": 3867,
      "into": 3868,
      "elf_": 3869,
      "OPC_": 3870,
      "COL": 3871,
      "Decode": 3872,
      "_PA": 3873,
      "\"\",": 3874,
      "OP_REQUIRES_OK": 3875,
      "]+": 3876,
      "AVPacket": 3877,
      "re_": 3878,
      "vsp": 3879,
      "igen": 3880,
      "using": 3881,
      "let": 3882,
      "utf": 3883,
      "om_": 3884,
      "yyvsp": 3885,
      "802": 3886,
      "nt_": 3887,
      "_st": 3888,
      "cpu_env": 3889,
      "synth": 3890,
      "JUMP": 3891,
      "direct": 3892,
      "b1": 3893,
      "alwa": 3894,
      "rq": 3895,
      "best_": 3896,
      "amily": 3897,
      "draw": 3898,
      "ENC": 3899,
      ";)": 3900,
      "_sum": 3901,
      "TCG_REG_": 3902,
      "avpriv": 3903,
      "ending": 3904,
      "udc": 3905,
      "NDPI_PROTOCOL_": 3906,
      "avcodec_": 3907,
      "LINE_": 3908,
      "ATTR": 3909,
      "udev": 3910,
      "unref": 3911,
      ",%": 3912,
      "bw": 3913,
      "ution": 3914,
      "entry_": 3915,
      "SHIFT": 3916,
      "()->": 3917,
      "FLA": 3918,
      "bio": 3919,
      "eno": 3920,
      "LAN": 3921,
      "ACK_": 3922,
      "av_dlog": 3923,
      "int8_t": 3924,
      "_mc": 3925,
      "factor": 3926,
      "dm": 3927,
      "s32": 3928,
      "SRC": 3929,
      "_parse_": 3930,
      "ference": 3931,
      "avc": 3932,
      "BASE": 3933,
      "iop": 3934,
      "_SAMPLE_": 3935,
      "CU": 3936,
      ")=": 3937,
      "75": 3938,
      "OPC": 3939,
      "16x": 3940,
      "BAD": 3941,
      "Field": 3942,
      "EM": 3943,
      "field_": 3944,
      "mented": 3945,
      "_STR": 3946,
      "planes": 3947,
      "ORT": 3948,
      "av_dict_": 3949,
      "EFAULT": 3950,
      "gf_bs_read_int_": 3951,
      "Ac": 3952,
      "strto": 3953,
      "compl_": 3954,
      "iff": 3955,
      "lines": 3956,
      "frm": 3957,
      "ating": 3958,
      "op1": 3959,
      "interval": 3960,
      "mean": 3961,
      "own": 3962,
      "_PARAM": 3963,
      "restore": 3964,
      "before": 3965,
      "sample_aspect_ratio": 3966,
      "EOF": 3967,
      "weights": 3968,
      "AF": 3969,
      "INPUT_": 3970,
      "_task": 3971,
      "eepro": 3972,
      "Helper": 3973,
      "gen_h": 3974,
      "sent_flag": 3975,
      "spe": 3976,
      "find_": 3977,
      "less": 3978,
      "AVFormat": 3979,
      "YV": 3980,
      "tcp_": 3981,
      "sword": 3982,
      "i1": 3983,
      "_TO": 3984,
      "component": 3985,
      "MMX": 3986,
      "7F": 3987,
      "imum": 3988,
      "g_strdup": 3989,
      "RETURN_": 3990,
      "Msg": 3991,
      "chars": 3992,
      "RTL": 3993,
      "bit_rate": 3994,
      "colum": 3995,
      "lw": 3996,
      "orb": 3997,
      "aligned": 3998,
      "_key": 3999,
      "picture_": 4000,
      "_present": 4001,
      "PH": 4002,
      "ations": 4003,
      "EXPECT_EQ": 4004,
      "^=": 4005,
      "e1000e_": 4006,
      "get_vlc": 4007,
      "np": 4008,
      "ARD_": 4009,
      "compno": 4010,
      "_fiel": 4011,
      "_handle": 4012,
      "directory": 4013,
      "erial": 4014,
      "irr": 4015,
      "GetBitContext": 4016,
      "Equal": 4017,
      "har": 4018,
      "mxf": 4019,
      "_dst": 4020,
      "MSI": 4021,
      "MEMORY": 4022,
      "res_": 4023,
      "lyph": 4024,
      "transform": 4025,
      "_SR": 4026,
      "gbc": 4027,
      "ctl_": 4028,
      "there": 4029,
      "overla": 4030,
      "fid": 4031,
      "_CMD_": 4032,
      "u_char": 4033,
      "VIRTIO": 4034,
      "band_": 4035,
      "TIME": 4036,
      "USER_": 4037,
      "ffffff": 4038,
      "RX": 4039,
      "NDPI_PROTOCOL": 4040,
      "DY": 4041,
      "_CR": 4042,
      "DN": 4043,
      "origin": 4044,
      "_FAIL": 4045,
      "rn": 4046,
      "avfilter_": 4047,
      "DU": 4048,
      "]),": 4049,
      "hex": 4050,
      "Fixed": 4051,
      "_freq": 4052,
      "POWER": 4053,
      "aff": 4054,
      "sole": 4055,
      "bound": 4056,
      "multip": 4057,
      "pthread_mutex": 4058,
      "_no": 4059,
      "izer": 4060,
      "cris_": 4061,
      "ORY_": 4062,
      "qemu_free": 4063,
      "crc": 4064,
      "04x": 4065,
      "_top": 4066,
      "ENTR": 4067,
      "listener": 4068,
      "rx_": 4069,
      "ties": 4070,
      "C4": 4071,
      "r2": 4072,
      "True": 4073,
      "UB": 4074,
      "samples_": 4075,
      "ified": 4076,
      "rand": 4077,
      "_fm": 4078,
      "TEST": 4079,
      "vm_": 4080,
      "grad": 4081,
      "UNKNOWN": 4082,
      "BGR": 4083,
      "typ": 4084,
      "And": 4085,
      "b2": 4086,
      "prot": 4087,
      "sty": 4088,
      "IN_": 4089,
      "merge": 4090,
      "logfile": 4091,
      "er_of": 4092,
      "ful": 4093,
      "yy10": 4094,
      "address_": 4095,
      "FILE_": 4096,
      "UNI": 4097,
      "UNU": 4098,
      "ific": 4099,
      "STR_PTR": 4100,
      "ALIGN": 4101,
      "got": 4102,
      "yy6": 4103,
      "dstW": 4104,
      "Exception": 4105,
      "eval": 4106,
      "pace": 4107,
      "fields": 4108,
      "Tra": 4109,
      "some": 4110,
      "written": 4111,
      "dst_reg": 4112,
      "ipv6": 4113,
      "dv": 4114,
      "del": 4115,
      "aux": 4116,
      "REGISTER_": 4117,
      "TX_": 4118,
      "t4": 4119,
      "tx_": 4120,
      "offsets": 4121,
      "bucket": 4122,
      "!!": 4123,
      "optim": 4124,
      "FFABS": 4125,
      "cannot": 4126,
      "_insn": 4127,
      "ILED": 4128,
      "pixel_ptr": 4129,
      "repeat": 4130,
      "rfbS": 4131,
      "_ops": 4132,
      "poc": 4133,
      "content": 4134,
      "Encoding": 4135,
      "FUNC": 4136,
      "_set": 4137,
      "cert": 4138,
      "lots": 4139,
      "MMA": 4140,
      "lash": 4141,
      "ARM": 4142,
      "sljit_": 4143,
      "VLC_BITS": 4144,
      "_features": 4145,
      "PTR": 4146,
      "cope": 4147,
      "kernel_filename": 4148,
      "sem": 4149,
      "cpl": 4150,
      "coord": 4151,
      "ume": 4152,
      "PIX_FMT_RGB": 4153,
      "CALL": 4154,
      "_delay": 4155,
      "Element": 4156,
      "krb5": 4157,
      "onent": 4158,
      "etch": 4159,
      "VM_": 4160,
      "NEL_": 4161,
      "PIC": 4162,
      "ech": 4163,
      "ENABLE": 4164,
      "_READ": 4165,
      "INDEX_op": 4166,
      "usion": 4167,
      "Pos": 4168,
      "min_": 4169,
      "Default": 4170,
      "OREACH": 4171,
      "df": 4172,
      "elen": 4173,
      "pcu": 4174,
      "**)": 4175,
      "hist": 4176,
      "_in_": 4177,
      "_CTR": 4178,
      "arm": 4179,
      "qemu_malloc": 4180,
      "Debug": 4181,
      "Ker": 4182,
      "spat": 4183,
      "IOContext": 4184,
      "(&(": 4185,
      "ken": 4186,
      "lack": 4187,
      "feature": 4188,
      "REG32": 4189,
      "mark": 4190,
      "AF_": 4191,
      "Start": 4192,
      "_present_flag": 4193,
      "current_picture_ptr": 4194,
      "class_": 4195,
      "=\\\"%": 4196,
      "nla": 4197,
      "chunk_size": 4198,
      "api": 4199,
      "HAND": 4200,
      "modif": 4201,
      "VLC": 4202,
      "_handler": 4203,
      "PAT": 4204,
      "TE_": 4205,
      "phdr": 4206,
      "_FRAME_": 4207,
      "_tile": 4208,
      "NUM_": 4209,
      "UNT": 4210,
      "segments": 4211,
      "var_values": 4212,
      "Canon": 4213,
      "Sh": 4214,
      "_di": 4215,
      "79": 4216,
      "chain": 4217,
      "url_": 4218,
      "get_vlc2": 4219,
      "'-": 4220,
      "udp": 4221,
      "COND_": 4222,
      "LVM_": 4223,
      "pic_": 4224,
      "indices": 4225,
      "BYTES": 4226,
      "_physical": 4227,
      "Tag": 4228,
      "_FP32": 4229,
      "megas": 4230,
      "coded_": 4231,
      "components": 4232,
      "85": 4233,
      "rel": 4234,
      "BACK": 4235,
      "key_info": 4236,
      "klass": 4237,
      "strcpy": 4238,
      "_rect": 4239,
      "val32": 4240,
      "_BO": 4241,
      "digest": 4242,
      "packed": 4243,
      "QEDI": 4244,
      "ISO": 4245,
      "ints": 4246,
      "ambd": 4247,
      "qemu_chr": 4248,
      "'))": 4249,
      "ioreq": 4250,
      "f1": 4251,
      "Dest": 4252,
      "ident": 4253,
      "dirty": 4254,
      "sections": 4255,
      "UE_": 4256,
      "domain": 4257,
      "angle": 4258,
      "zz": 4259,
      "cow": 4260,
      "Ext": 4261,
      "tcase": 4262,
      "buf_ptr": 4263,
      "Addr": 4264,
      "correct": 4265,
      "permut": 4266,
      "yy187": 4267,
      "buf0": 4268,
      "qedi_conn": 4269,
      "]*": 4270,
      "refs": 4271,
      "iority": 4272,
      ">();": 4273,
      "_host": 4274,
      "Del": 4275,
      "Rate": 4276,
      "ndef": 4277,
      "005": 4278,
      "Pix": 4279,
      "sess": 4280,
      "ical_": 4281,
      "_su": 4282,
      "_entry": 4283,
      "sure": 4284,
      "_pts": 4285,
      "charact": 4286,
      "my_": 4287,
      "ify_": 4288,
      "cess_": 4289,
      "lut": 4290,
      "DATA_": 4291,
      "implemented": 4292,
      "\"},": 4293,
      "NED": 4294,
      "Sk": 4295,
      "420P": 4296,
      "OS": 4297,
      "very": 4298,
      "in_addr": 4299,
      "ifndef": 4300,
      "checksum": 4301,
      "Free": 4302,
      "PCIDevice": 4303,
      "driv": 4304,
      "mot_": 4305,
      "log2_": 4306,
      "_prop": 4307,
      "</": 4308,
      "hr": 4309,
      "exist": 4310,
      "oft": 4311,
      "finish": 4312,
      "qemu_opt_": 4313,
      "Kernel": 4314,
      "vaddr": 4315,
      "Height": 4316,
      "JPEG": 4317,
      "Blob": 4318,
      "DS": 4319,
      ":\\": 4320,
      "Expr": 4321,
      "BI": 4322,
      "OP2": 4323,
      "AVFormatContext": 4324,
      "_CMD": 4325,
      "psr": 4326,
      "blkdev": 4327,
      "CODER": 4328,
      "ip6": 4329,
      "C_ID": 4330,
      "src_x": 4331,
      "MM_": 4332,
      "vr": 4333,
      "rt_": 4334,
      "ifp": 4335,
      "\"+": 4336,
      "M_S": 4337,
      "UNUSED": 4338,
      "buf_end": 4339,
      "formats": 4340,
      "_find": 4341,
      "refcount": 4342,
      "72": 4343,
      "amic": 4344,
      "oriz": 4345,
      "cause": 4346,
      "92": 4347,
      "tptr": 4348,
      "neg": 4349,
      "TY": 4350,
      "Tok": 4351,
      "alen": 4352,
      "INE": 4353,
      "_cmd_": 4354,
      "_vlc": 4355,
      "fmt_": 4356,
      "_frag": 4357,
      "1010": 4358,
      "marker": 4359,
      "_error": 4360,
      "VID": 4361,
      "AV_SAMPLE_": 4362,
      "cpu_model": 4363,
      "clu": 4364,
      "iov_len": 4365,
      "AV_SAMPLE_FMT_": 4366,
      "__FUNCTION": 4367,
      "__FUNCTION__": 4368,
      "hu": 4369,
      "VIRTIO_": 4370,
      "_default": 4371,
      "AV_CODEC_ID_": 4372,
      "_PARAM_": 4373,
      "Display": 4374,
      "fre": 4375,
      "recv": 4376,
      "004": 4377,
      "_FE": 4378,
      ")((": 4379,
      "LD": 4380,
      "crop": 4381,
      "bytestream2_get_byte": 4382,
      "Lock": 4383,
      "Local": 4384,
      "_TH": 4385,
      "gdImage": 4386,
      "avio_rl": 4387,
      "DC_": 4388,
      "f2": 4389,
      "_class": 4390,
      "get_bits_count": 4391,
      "_fmts": 4392,
      "65": 4393,
      "ound": 4394,
      "cpu_to_le32": 4395,
      "tid": 4396,
      "til": 4397,
      "reslevel": 4398,
      "area": 4399,
      "virtual": 4400,
      "quantize": 4401,
      "mrb": 4402,
      "icy": 4403,
      "split": 4404,
      "tcg_gen_mov": 4405,
      "IDE": 4406,
      "ward": 4407,
      "ived": 4408,
      "Int32": 4409,
      "_track": 4410,
      "f_idx": 4411,
      "enter": 4412,
      "dummy": 4413,
      "CMD": 4414,
      "lambd": 4415,
      "uintptr_t": 4416,
      "Dec": 4417,
      "Comple": 4418,
      "Sy": 4419,
      "exter": 4420,
      "RS": 4421,
      "decoding": 4422,
      "INET": 4423,
      "ff_m": 4424,
      "_pe": 4425,
      "ABLE_": 4426,
      "_part": 4427,
      "Le": 4428,
      "ato": 4429,
      "build": 4430,
      "ref_count": 4431,
      "EB": 4432,
      "i_tl": 4433,
      "(;;)": 4434,
      "Link": 4435,
      "how": 4436,
      "s_list": 4437,
      "Core": 4438,
      "extract": 4439,
      "UPD": 4440,
      "pipe_ctx": 4441,
      "Path": 4442,
      "socket_": 4443,
      "_prev": 4444,
      "_SECTOR": 4445,
      "_scanner": 4446,
      "used_": 4447,
      "Dst": 4448,
      "FD": 4449,
      "Cannot": 4450,
      "Last": 4451,
      "pte": 4452,
      "/=": 4453,
      "guid": 4454,
      "ense": 4455,
      "proc": 4456,
      "_SUB": 4457,
      "sizes": 4458,
      "Zend": 4459,
      "l_p": 4460,
      "zend_language": 4461,
      "zend_language_scanner": 4462,
      "data_len": 4463,
      "ENS": 4464,
      "int16": 4465,
      "FIELD": 4466,
      "pts_": 4467,
      "events": 4468,
      "vif": 4469,
      "n1": 4470,
      "_CUR": 4471,
      "tracks": 4472,
      "edge_pos": 4473,
      "MALL": 4474,
      "Dir": 4475,
      "vLum": 4476,
      "+(": 4477,
      "bps": 4478,
      "_add_test": 4479,
      "previous": 4480,
      "tcase_add_test": 4481,
      "Const": 4482,
      "comple": 4483,
      "operty": 4484,
      "2d": 4485,
      "phys_addr_t": 4486,
      "Pi": 4487,
      "isi": 4488,
      "amer": 4489,
      "(%%": 4490,
      "yy7": 4491,
      "pcm": 4492,
      "evt": 4493,
      "vp8": 4494,
      "cid": 4495,
      "jmp": 4496,
      "target_phys_addr_t": 4497,
      "hevc_": 4498,
      "bottom": 4499,
      "sep": 4500,
      "title": 4501,
      "extende": 4502,
      "SPR": 4503,
      "runt": 4504,
      "bug_": 4505,
      "DESC": 4506,
      "cur_pic": 4507,
      "With": 4508,
      "ates": 4509,
      "_spl": 4510,
      "gnut": 4511,
      "\".": 4512,
      "cw": 4513,
      "coefs": 4514,
      "ke_": 4515,
      "_PK": 4516,
      "Source": 4517,
      "bind": 4518,
      "cx": 4519,
      "suc": 4520,
      "vChr": 4521,
      "prediction": 4522,
      "g_malloc": 4523,
      "pixel_shift": 4524,
      "CONFIG": 4525,
      "_current_": 4526,
      "(%%\"": 4527,
      "V4": 4528,
      "*,": 4529,
      "ORT_": 4530,
      "(*(": 4531,
      "LITE_": 4532,
      "UDP": 4533,
      "condition": 4534,
      "VHOST_": 4535,
      "{-": 4536,
      "interrupt_": 4537,
      "BlockDriverState": 4538,
      "bet": 4539,
      "_br": 4540,
      "SIZE_": 4541,
      "_dev": 4542,
      "TARGET_N": 4543,
      "LVRE": 4544,
      "FLO": 4545,
      "stance": 4546,
      "overr": 4547,
      "ake_": 4548,
      "QUAL": 4549,
      "ppc": 4550,
      "const_": 4551,
      "UID": 4552,
      "ities": 4553,
      "bytestream_put_": 4554,
      "scanf": 4555,
      "cluster_size": 4556,
      "lar": 4557,
      "qdict": 4558,
      "movd": 4559,
      "va": 4560,
      "fragment": 4561,
      "eax": 4562,
      ")]": 4563,
      "sed_": 4564,
      "data_reg": 4565,
      "_can": 4566,
      "ND_T": 4567,
      "xfer": 4568,
      "sense": 4569,
      "Ca": 4570,
      "IP_": 4571,
      "iovec": 4572,
      "rac_": 4573,
      "vid_": 4574,
      "_from": 4575,
      "_for_": 4576,
      "gpio": 4577,
      "mant": 4578,
      "sponse": 4579,
      "Control": 4580,
      "es_": 4581,
      "atile": 4582,
      "corout": 4583,
      "operands": 4584,
      "LIC": 4585,
      "LIM": 4586,
      "pattern": 4587,
      "amera": 4588,
      "place": 4589,
      "then": 4590,
      "LOC": 4591,
      "TLS": 4592,
      "_lim": 4593,
      "Bin": 4594,
      "TION_": 4595,
      "settings": 4596,
      "endor": 4597,
      "RF": 4598,
      "effect": 4599,
      "TELEM": 4600,
      "uv_": 4601,
      "BLK": 4602,
      "notifier": 4603,
      "nbd_": 4604,
      "OP_REQUIRES": 4605,
      "v9fs_": 4606,
      "\"-": 4607,
      "Vop": 4608,
      "_Char": 4609,
      "_bin": 4610,
      "GAIN": 4611,
      "CPU_": 4612,
      "Valid": 4613,
      "_STATUS_ERROR": 4614,
      "qio_": 4615,
      "desc_": 4616,
      "partition": 4617,
      "'.": 4618,
      "brd": 4619,
      "rate_": 4620,
      "which": 4621,
      "dprintf": 4622,
      "cap_": 4623,
      "move_": 4624,
      "93": 4625,
      "GRAY": 4626,
      "SHA": 4627,
      "vms": 4628,
      "chr_": 4629,
      "_pixels_tab": 4630,
      "FLAC_": 4631,
      "devices": 4632,
      "lst": 4633,
      "_transp": 4634,
      "cl_": 4635,
      "ity_": 4636,
      "expi": 4637,
      "ACHE": 4638,
      "YV12": 4639,
      "last_picture": 4640,
      "Parameter": 4641,
      "Interface": 4642,
      "_a": 4643,
      "ks": 4644,
      "pages": 4645,
      "Back": 4646,
      "qobject_": 4647,
      "PCRE": 4648,
      "fixed": 4649,
      "0xc": 4650,
      "gb_": 4651,
      "IGHT": 4652,
      "org": 4653,
      "loop_filter": 4654,
      "EVENT_": 4655,
      "dev_err": 4656,
      "INVALID_": 4657,
      "eth": 4658,
      "ctrl_": 4659,
      "Head": 4660,
      "Options": 4661,
      "Next": 4662,
      "art_": 4663,
      "mmu": 4664,
      "body": 4665,
      "ranch": 4666,
      "NT_": 4667,
      "FAIL": 4668,
      "iscsi_": 4669,
      "_CONFI": 4670,
      "migr": 4671,
      "image_": 4672,
      "_mod": 4673,
      "parameters": 4674,
      "5f": 4675,
      "ML": 4676,
      "verbo": 4677,
      "_bands": 4678,
      "le32_to_cpu": 4679,
      "_scr": 4680,
      "play_": 4681,
      "FOR": 4682,
      "NG_": 4683,
      "d1": 4684,
      "qs": 4685,
      "vst": 4686,
      "bswap": 4687,
      "MASK_": 4688,
      "vertical_": 4689,
      "_dbg": 4690,
      "ARCHIVE_": 4691,
      "nx": 4692,
      "ASC": 4693,
      "((*": 4694,
      "DIRECT": 4695,
      "RTL8139": 4696,
      "interlaced": 4697,
      "Tx": 4698,
      "yyval": 4699,
      "DELAY": 4700,
      "MAGIC": 4701,
      "av_clip_uint8": 4702,
      "dtype": 4703,
      "capabil": 4704,
      "TIF": 4705,
      "BLOCK_": 4706,
      "scriptor": 4707,
      "mi": 4708,
      "stri": 4709,
      "USER": 4710,
      "80211": 4711,
      "saved": 4712,
      "cost": 4713,
      "lr": 4714,
      "r0": 4715,
      "_SO": 4716,
      "Cache": 4717,
      "snap": 4718,
      "CHECK_": 4719,
      "QLIST_": 4720,
      "volatile": 4721,
      "dct": 4722,
      "avio_skip": 4723,
      "TABLE": 4724,
      "Remove": 4725,
      "omap": 4726,
      "}),": 4727,
      "lambda": 4728,
      "pw": 4729,
      "avf": 4730,
      "MAC": 4731,
      "proxy": 4732,
      "AV_RL32": 4733,
      "pret": 4734,
      "noise": 4735,
      "space_": 4736,
      "Server": 4737,
      "fp_": 4738,
      "endpoint": 4739,
      "qpel": 4740,
      "FG": 4741,
      "sper": 4742,
      "iterator": 4743,
      "CMP": 4744,
      "fft_": 4745,
      "trace": 4746,
      "ps_codec": 4747,
      "gf_bs_read_int_log": 4748,
      "clk": 4749,
      "vmci": 4750,
      "cpu_gpr": 4751,
      "Eigen": 4752,
      "b0": 4753,
      "short_": 4754,
      "NAME_": 4755,
      "ALOGV": 4756,
      "str_": 4757,
      "003": 4758,
      "ply_": 4759,
      "coeffic": 4760,
      "floor": 4761,
      "Sign": 4762,
      "PARAM": 4763,
      "FRAME_": 4764,
      "Close": 4765,
      "cell": 4766,
      "V9": 4767,
      "mux": 4768,
      "quality": 4769,
      "TCGv": 4770,
      "_BITS": 4771,
      "CTR": 4772,
      "JS_": 4773,
      "T1": 4774,
      "cut": 4775,
      "pv_": 4776,
      "missing": 4777,
      "pan": 4778,
      "XML_Char": 4779,
      "xendev": 4780,
      "reserved": 4781,
      "bulk": 4782,
      "final": 4783,
      "media": 4784,
      "header_size": 4785,
      "Open": 4786,
      "cue": 4787,
      "outbuf": 4788,
      "QX": 4789,
      "++);": 4790,
      "False": 4791,
      "bk": 4792,
      "pn": 4793,
      "strings": 4794,
      "DON": 4795,
      "16_": 4796,
      "Unable": 4797,
      "apdu": 4798,
      "lsp": 4799,
      "Structured": 4800,
      "_ta": 4801,
      "LEV": 4802,
      "ear": 4803,
      "us1": 4804,
      "TP_": 4805,
      "guest_": 4806,
      "ET_": 4807,
      "EFF": 4808,
      "mi_": 4809,
      "LIST": 4810,
      "property_": 4811,
      "_idc": 4812,
      "CE_": 4813,
      "Host": 4814,
      "Iter": 4815,
      "ZEND_": 4816,
      "form_": 4817,
      "code_": 4818,
      "rtl8xxxu": 4819,
      "CONST_": 4820,
      "_feature": 4821,
      "vsock": 4822,
      "MSG": 4823,
      "_cmdline": 4824,
      "_FRAME": 4825,
      "z_": 4826,
      "endian": 4827,
      "perm": 4828,
      "ea": 4829,
      "_TIME_": 4830,
      "Picture": 4831,
      "49": 4832,
      "bro": 4833,
      "%%%%": 4834,
      "_addr_t": 4835,
      "gl": 4836,
      "NOACCESS": 4837,
      "SPR_NOACCESS": 4838,
      "Cr": 4839,
      "EMP": 4840,
      "u1": 4841,
      "mpi": 4842,
      "_pck": 4843,
      "_sup": 4844,
      "blocksize": 4845,
      "ORDER": 4846,
      "arget": 4847,
      "mapped": 4848,
      "\"\"": 4849,
      "IMA": 4850,
      "one_": 4851,
      "bufs": 4852,
      "dim_size": 4853,
      "iw": 4854,
      "all_": 4855,
      "LOGE": 4856,
      "ebml": 4857,
      "cluster_offset": 4858,
      "top_": 4859,
      "ervice": 4860,
      "Fe": 4861,
      "ged": 4862,
      "src_offset_": 4863,
      "UL": 4864,
      "tb_": 4865,
      "prm": 4866,
      "y_offset": 4867,
      "*>(": 4868,
      "infl": 4869,
      "POWERPC_": 4870,
      "Bad": 4871,
      "_trans": 4872,
      "gnutls_": 4873,
      "decorr": 4874,
      "Internal": 4875,
      "srs": 4876,
      "VirtIO": 4877,
      "RENAME": 4878,
      "sample_fmt": 4879,
      "cabac_": 4880,
      "QTAILQ": 4881,
      "cool": 4882,
      "LEFT": 4883,
      "attrs": 4884,
      "_RD": 4885,
      ")&": 4886,
      "adv": 4887,
      "half": 4888,
      "buflen": 4889,
      "connect_": 4890,
      "_prefix": 4891,
      "ff_h264": 4892,
      "FR": 4893,
      "_emu": 4894,
      "arg_": 4895,
      "cstr": 4896,
      "av_b": 4897,
      "lour": 4898,
      "ERRUP": 4899,
      "INTERRUP": 4900,
      "stdout": 4901,
      "tl_": 4902,
      ">()": 4903,
      "idge": 4904,
      "_release": 4905,
      "ATEG": 4906,
      "SPI": 4907,
      "DISC": 4908,
      "nb_channels": 4909,
      "NP": 4910,
      "p4": 4911,
      "comb": 4912,
      "date": 4913,
      "Ent": 4914,
      "_COPY": 4915,
      "_stride": 4916,
      "psub": 4917,
      "Tab": 4918,
      "mip": 4919,
      "clip": 4920,
      "QEDI_": 4921,
      "mmco": 4922,
      "actual": 4923,
      "megasas_": 4924,
      "pun": 4925,
      "plu": 4926,
      "fdt_": 4927,
      "_PRED": 4928,
      "lpc": 4929,
      "_register_": 4930,
      "max_value": 4931,
      "45": 4932,
      "sscanf": 4933,
      "swap": 4934,
      "_memory_": 4935,
      "_START": 4936,
      "vectors": 4937,
      "()));": 4938,
      "drc": 4939,
      "_to_cpu": 4940,
      "ter_": 4941,
      "nos": 4942,
      "always": 4943,
      "jor": 4944,
      "alp": 4945,
      "reader_": 4946,
      "SCALE_": 4947,
      "NET_": 4948,
      "Bool": 4949,
      "beta": 4950,
      "dig": 4951,
      "server_": 4952,
      "scaled": 4953,
      "feed": 4954,
      "HEVC": 4955,
      "_dc_": 4956,
      "AP4_": 4957,
      "padding": 4958,
      "VA": 4959,
      "_batch": 4960,
      "DEFAU": 4961,
      "initialize": 4962,
      "FL": 4963,
      "FMT": 4964,
      "act_": 4965,
      "_SING": 4966,
      "tags": 4967,
      "XML_TRUE": 4968,
      "boot": 4969,
      "gf_bs_read_": 4970,
      "0x000": 4971,
      "Mat": 4972,
      "b8_": 4973,
      "_plane": 4974,
      "CM": 4975,
      "Gr": 4976,
      "sd_": 4977,
      "_test_": 4978,
      "capt": 4979,
      "DT_F": 4980,
      "dt": 4981,
      "anal": 4982,
      "Cvar_": 4983,
      "TrueColor": 4984,
      "_defaults": 4985,
      "PK": 4986,
      "OPJ": 4987,
      "EXCP_": 4988,
      ")+": 4989,
      "aac": 4990,
      "arget_": 4991,
      "='": 4992,
      "RD": 4993,
      "TSR": 4994,
      "Util": 4995,
      "ref_cache": 4996,
      "_new_": 4997,
      "orient": 4998,
      "element_": 4999,
      "SUPPOR": 5000,
      "hip": 5001,
      "imary": 5002,
      "SCNG": 5003,
      "PORT_": 5004,
      "ject": 5005,
      "av_assert": 5006,
      "kernel_cmdline": 5007,
      "_tell": 5008,
      "PCAST": 5009,
      "DO_U": 5010,
      "PROTO": 5011,
      "Module": 5012,
      "DO_UPCAST": 5013,
      "eeprom": 5014,
      "FLAG": 5015,
      "_min_": 5016,
      "counts": 5017,
      "LEVEL": 5018,
      "IGH": 5019,
      "shot": 5020,
      "v3": 5021,
      "URL": 5022,
      "MagickFalse": 5023,
      "alu": 5024,
      "orientation": 5025,
      "trun": 5026,
      "ular": 5027,
      "AT_": 5028,
      "wav": 5029,
      "_cre": 5030,
      "ARRAY_SIZE": 5031,
      "tax": 5032,
      "_depth": 5033,
      "SPA": 5034,
      "visit_": 5035,
      "MV_": 5036,
      "LINK": 5037,
      "\"=": 5038,
      "keyframe": 5039,
      "Bus": 5040,
      "ole": 5041,
      "0x40": 5042,
      "tg": 5043,
      "av_frame_": 5044,
      "Private": 5045,
      "EQUAL": 5046,
      "_u": 5047,
      "_write_": 5048,
      "disc": 5049,
      "ND_TCHECK": 5050,
      "lp": 5051,
      "words": 5052,
      "consumed": 5053,
      "_64": 5054,
      "67": 5055,
      "VF": 5056,
      "tunnel": 5057,
      "unmap": 5058,
      "console": 5059,
      "entity": 5060,
      "vp8_": 5061,
      "sql": 5062,
      "Command": 5063,
      "m4": 5064,
      "signature": 5065,
      "Reader": 5066,
      "_pipe": 5067,
      "video_enc": 5068,
      "XML_Parse": 5069,
      "strchr": 5070,
      "ofs": 5071,
      "Initial": 5072,
      "tf": 5073,
      "CRYPTO": 5074,
      "MKTAG": 5075,
      "verbose": 5076,
      "yacc": 5077,
      "face_": 5078,
      "gdFixed": 5079,
      "spin_lock": 5080,
      "STACK_TOP": 5081,
      "lag_": 5082,
      "comment": 5083,
      "Result": 5084,
      "ated_": 5085,
      "0xe": 5086,
      "_tc": 5087,
      "_tail": 5088,
      "not_": 5089,
      "mms": 5090,
      "pow": 5091,
      "boun": 5092,
      "69": 5093,
      "diff_t": 5094,
      "failure": 5095,
      "_pages": 5096,
      "edit": 5097,
      "ACKET_": 5098,
      "shake": 5099,
      "chunks": 5100,
      "vendor": 5101,
      "BUG_": 5102,
      "minor": 5103,
      "segment_": 5104,
      "QPD": 5105,
      "BE_": 5106,
      "WREG32": 5107,
      "_max": 5108,
      "l4": 5109,
      "_context": 5110,
      "eq": 5111,
      "asm": 5112,
      "pos_": 5113,
      "89": 5114,
      "pb_": 5115,
      "AVFilterContext": 5116,
      "got_frame": 5117,
      "allocate_": 5118,
      "ctionary": 5119,
      "service": 5120,
      "cin": 5121,
      "glyph": 5122,
      "tmp_": 5123,
      "drm": 5124,
      "_is_": 5125,
      "ename": 5126,
      "verify": 5127,
      "irq_": 5128,
      "dest_y": 5129,
      "a0": 5130,
      "u4_": 5131,
      "KVM": 5132,
      "_values": 5133,
      "ied": 5134,
      "agate": 5135,
      "GO": 5136,
      "Make": 5137,
      "((\"": 5138,
      "intra_": 5139,
      "qp_": 5140,
      "ither": 5141,
      "Slot": 5142,
      "MOVE": 5143,
      "stand": 5144,
      "gf_fprintf": 5145,
      "mtpt": 5146,
      "pel": 5147,
      "ptrdiff_t": 5148,
      "threshold": 5149,
      "_config": 5150,
      "commit": 5151,
      "Entity": 5152,
      "_sb": 5153,
      "07": 5154,
      "LB": 5155,
      "PPC": 5156,
      "Win": 5157,
      "save_": 5158,
      "_CIP": 5159,
      "abi_ulong": 5160,
      "Ctx": 5161,
      "ification": 5162,
      "RED": 5163,
      "scsi_": 5164,
      "dstFormat": 5165,
      "mc_": 5166,
      "_pci": 5167,
      "ression": 5168,
      "TAG_": 5169,
      "dg": 5170,
      "Cvar_Get": 5171,
      "PER": 5172,
      "qh": 5173,
      "ref_list": 5174,
      "uwsgi": 5175,
      "]\\": 5176,
      "bytestream_get_": 5177,
      "NJS_": 5178,
      "fram": 5179,
      "_TRAN": 5180,
      "union": 5181,
      "capture": 5182,
      "AAC": 5183,
      "GF_TRUE": 5184,
      "DOWN": 5185,
      "JSON": 5186,
      "_SINGLE_": 5187,
      "fname": 5188,
      "IF_ERROR": 5189,
      "XEL": 5190,
      "MAS": 5191,
      "web": 5192,
      "NOT": 5193,
      "lha": 5194,
      "DT_FLOAT": 5195,
      "_sn": 5196,
      "Connection": 5197,
      "4F": 5198,
      "8F": 5199,
      "Mask": 5200,
      "ve_": 5201,
      "access_": 5202,
      "_REG_": 5203,
      "MON": 5204,
      "mf": 5205,
      "pq": 5206,
      "log_ctx": 5207,
      "Rever": 5208,
      "0x02": 5209,
      "rgb_": 5210,
      "ational": 5211,
      "Quantum": 5212,
      "Page": 5213,
      "Quantized": 5214,
      "rac": 5215,
      "avio_rb": 5216,
      "rtl8xxxu_": 5217,
      "vfi": 5218,
      "pu1": 5219,
      "scantable": 5220,
      "assoc_": 5221,
      "EN_": 5222,
      "password": 5223,
      "DEFAULT_": 5224,
      "rtp": 5225,
      "Process": 5226,
      "cmo": 5227,
      "nfs": 5228,
      "node_": 5229,
      "way": 5230,
      "small": 5231,
      "quir": 5232,
      "_packets": 5233,
      "goti": 5234,
      "_point": 5235,
      "large": 5236,
      "03": 5237,
      "CAP": 5238,
      "smp": 5239,
      "json": 5240,
      "bprm": 5241,
      "in1": 5242,
      "IDX": 5243,
      "attributes": 5244,
      "Graph": 5245,
      "IC_": 5246,
      "_invalid": 5247,
      "clusters": 5248,
      "Skip": 5249,
      "att": 5250,
      "_bar": 5251,
      "CH_": 5252,
      "jsv": 5253,
      "predictor": 5254,
      "initrd": 5255,
      "sible": 5256,
      "MARKER": 5257,
      "FT_": 5258,
      "sam": 5259,
      "ff_r": 5260,
      "_phys": 5261,
      "ndpi": 5262,
      "codec_tag": 5263,
      "EXIT_": 5264,
      "object_property_": 5265,
      "sidu": 5266,
      "bufsize": 5267,
      "SLJIT_SP": 5268,
      "smk": 5269,
      "0x00000000": 5270,
      "alias": 5271,
      "pam": 5272,
      "util": 5273,
      "ranges": 5274,
      "qscale_table": 5275,
      "_pkt_": 5276,
      "override": 5277,
      "cos": 5278,
      "Inte": 5279,
      "bit_depth": 5280,
      "TRACE": 5281,
      ":\",": 5282,
      "BIN": 5283,
      "_pci_": 5284,
      "_cluster": 5285,
      "s_id": 5286,
      "AV_WN": 5287,
      "make_": 5288,
      "AVFilterLink": 5289,
      "columns": 5290,
      "hls": 5291,
      "thread_": 5292,
      "dstStride": 5293,
      "DISP": 5294,
      "iov_base": 5295,
      "TSUP": 5296,
      "avio_seek": 5297,
      "CV": 5298,
      "RT_": 5299,
      "quint8": 5300,
      "accel": 5301,
      "_clear": 5302,
      "INSER": 5303,
      "_post": 5304,
      "_is": 5305,
      "pul": 5306,
      "private": 5307,
      "RADE": 5308,
      "ware": 5309,
      "mv_cache": 5310,
      "=\\\"": 5311,
      "ioport_": 5312,
      ",&": 5313,
      "tty_": 5314,
      "dinfo": 5315,
      "reset_": 5316,
      "init_get_bits": 5317,
      "_transport_": 5318,
      "ROM": 5319,
      "start_time": 5320,
      "priority": 5321,
      "r_buf": 5322,
      "descrip": 5323,
      "Row": 5324,
      "atoi": 5325,
      "compl": 5326,
      "XS": 5327,
      "qemu_mutex": 5328,
      "FIMD_": 5329,
      "proto_defaults": 5330,
      "container_of": 5331,
      "Network": 5332,
      "ccid": 5333,
      "svq": 5334,
      "icmp": 5335,
      "connected": 5336,
      "four": 5337,
      "lugin": 5338,
      "FE": 5339,
      "CP0": 5340,
      "XML_STATUS_ERROR": 5341,
      "iscsilun": 5342,
      "push_back": 5343,
      "Camera": 5344,
      "tions": 5345,
      "0xffffffff": 5346,
      "abc": 5347,
      "_reg_": 5348,
      "pair": 5349,
      "_sc": 5350,
      "illeg": 5351,
      "tific": 5352,
      "pes": 5353,
      "tables": 5354,
      "gf_filter": 5355,
      "_syn": 5356,
      "_destroy": 5357,
      "2048": 5358,
      "AddInput": 5359,
      "exc": 5360,
      "REAM_": 5361,
      "ibs": 5362,
      "ients": 5363,
      "_failure": 5364,
      "BIT_": 5365,
      "_tbl": 5366,
      "single": 5367,
      "Rx": 5368,
      "diren": 5369,
      "sysbus_": 5370,
      "basic": 5371,
      "unsupported": 5372,
      "pr_": 5373,
      "RAY_": 5374,
      "normal": 5375,
      "gf_is": 5376,
      "level_": 5377,
      "spin_unlock": 5378,
      "punpck": 5379,
      "warning": 5380,
      "ALIGNED": 5381,
      "Vari": 5382,
      "nf": 5383,
      "_mult": 5384,
      "hevc": 5385,
      "STATE_": 5386,
      "BDRV_SECTOR": 5387,
      "gran": 5388,
      "999": 5389,
      "pls": 5390,
      "sg_": 5391,
      "SQL_": 5392,
      ".\");": 5393,
      "resample": 5394,
      "private_data": 5395,
      ">&": 5396,
      "Y2": 5397,
      "_ring": 5398,
      "768": 5399,
      "ADDING": 5400,
      "rnd": 5401,
      "u2": 5402,
      "_push": 5403,
      "shared": 5404,
      "ono": 5405,
      "error_prop": 5406,
      "Types": 5407,
      "hton": 5408,
      "PixelFormat": 5409,
      "PJ_": 5410,
      "spatial": 5411,
      "error_propagate": 5412,
      "dd": 5413,
      "Expect": 5414,
      "STR_": 5415,
      "apply": 5416,
      "two": 5417,
      "16x16": 5418,
      "L1": 5419,
      "at_": 5420,
      "FILT": 5421,
      "pt_": 5422,
      "_SER": 5423,
      "formation": 5424,
      "macro": 5425,
      "container": 5426,
      "g_assert_cmpint": 5427,
      "SB": 5428,
      "fps": 5429,
      "*/);": 5430,
      "_mul": 5431,
      "206": 5432,
      "assertEqual": 5433,
      "LOAD_": 5434,
      "sdr": 5435,
      "MIPS_": 5436,
      "uth": 5437,
      "MSR": 5438,
      "r3": 5439,
      "HCI": 5440,
      "32s": 5441,
      "multi": 5442,
      "yy5": 5443,
      "description": 5444,
      "realloc": 5445,
      "pr_debug": 5446,
      "EO": 5447,
      "]][": 5448,
      "_CAP": 5449,
      "CTYPE": 5450,
      "ED_": 5451,
      "acl": 5452,
      "_luma": 5453,
      "4210": 5454,
      "_pred_mode": 5455,
      "MLS": 5456,
      "O_RD": 5457,
      "plug": 5458,
      "internal_": 5459,
      "TSRMLS": 5460,
      "las": 5461,
      "sour": 5462,
      "monitor_printf": 5463,
      "progress": 5464,
      "83": 5465,
      "GetTensor": 5466,
      "__user": 5467,
      "gen_op_": 5468,
      "DECODER": 5469,
      "point_": 5470,
      "error_code": 5471,
      "dbg_": 5472,
      "tree_": 5473,
      "tcg_out": 5474,
      "PAL": 5475,
      "cpu_physical": 5476,
      "resource": 5477,
      "NAL_": 5478,
      "crypto_": 5479,
      "hci_": 5480,
      "mmap": 5481,
      "_ld": 5482,
      "ible": 5483,
      "be32s": 5484,
      "_w": 5485,
      "rce": 5486,
      "ater": 5487,
      "ff_get_": 5488,
      "srcStride": 5489,
      "_poll": 5490,
      "b3": 5491,
      "tab_": 5492,
      "sctp_": 5493,
      "giv": 5494,
      "struction": 5495,
      "LAB": 5496,
      "Descriptor": 5497,
      "AS_": 5498,
      "rectory": 5499,
      "assign": 5500,
      "Cont": 5501,
      "_motion": 5502,
      "EAGAIN": 5503,
      "Band": 5504,
      "RI": 5505,
      "negoti": 5506,
      "tmp1": 5507,
      "STREAM": 5508,
      "PUT": 5509,
      "LIMIT": 5510,
      "ik": 5511,
      "sas": 5512,
      "plane_index": 5513,
      "****************": 5514,
      "get_ue_": 5515,
      "ppc_": 5516,
      "vc1_": 5517,
      "CTL": 5518,
      "inf": 5519,
      "_CATEG": 5520,
      "edge_emu": 5521,
      "PROT_": 5522,
      "iu": 5523,
      "urface": 5524,
      "permutation": 5525,
      "BASE_": 5526,
      "fb_": 5527,
      "uments": 5528,
      "ces": 5529,
      "Integer": 5530,
      "__get_": 5531,
      "m2": 5532,
      "sregs": 5533,
      "_cfg": 5534,
      "NL": 5535,
      "copi": 5536,
      "ff_j": 5537,
      "sk_buff": 5538,
      "buf_len": 5539,
      "Instance": 5540,
      ",(": 5541,
      "AAC_": 5542,
      "trail": 5543,
      "_SHA": 5544,
      "mpty": 5545,
      "s_ctx": 5546,
      "backend": 5547,
      "pare": 5548,
      "cpu_to_be32": 5549,
      "x509": 5550,
      "aps": 5551,
      "pbo": 5552,
      "0x1f": 5553,
      "orizont": 5554,
      "jVal": 5555,
      "_CHEC": 5556,
      "tcg_temp_free": 5557,
      "refcount_table": 5558,
      "cookie": 5559,
      "ilt": 5560,
      "SrcPtr": 5561,
      "PAPR": 5562,
      "DCA": 5563,
      "TF_RETURN_": 5564,
      "execute": 5565,
      "tected": 5566,
      "3D11": 5567,
      "Ret": 5568,
      "alle": 5569,
      "error_abort": 5570,
      "daddr": 5571,
      "(%[": 5572,
      "integer": 5573,
      "convert_": 5574,
      "73": 5575,
      "stream_": 5576,
      "_protocol": 5577,
      "DV": 5578,
      "expand": 5579,
      "through": 5580,
      "resync_": 5581,
      "MEM_": 5582,
      "disk": 5583,
      "cabac": 5584,
      "jpe": 5585,
      "0x12": 5586,
      "c_str": 5587,
      "ssd": 5588,
      "vertical_compose": 5589,
      "_rece": 5590,
      "_TOK": 5591,
      "nor": 5592,
      "pthread_": 5593,
      "cust": 5594,
      "scalar": 5595,
      "msh": 5596,
      "what": 5597,
      "BDRV_": 5598,
      "TF_RETURN_IF_ERROR": 5599,
      "fetch": 5600,
      "00000": 5601,
      "ape_": 5602,
      "IVE": 5603,
      "GF_LOG_": 5604,
      "ticks": 5605,
      "-(": 5606,
      "PS_": 5607,
      "Temp": 5608,
      "_SW": 5609,
      "dimensions": 5610,
      "CVAR_": 5611,
      "Gener": 5612,
      "convert": 5613,
      "vorb": 5614,
      "ASCI": 5615,
      "vop": 5616,
      "Run": 5617,
      "yy172": 5618,
      "PTH": 5619,
      "alph": 5620,
      "CHW": 5621,
      "MF": 5622,
      "qmul": 5623,
      "typename": 5624,
      "success": 5625,
      "a3": 5626,
      "ogg": 5627,
      "STAR": 5628,
      "mulfx": 5629,
      "gd_mulfx": 5630,
      "}\",": 5631,
      "_fn": 5632,
      "compare": 5633,
      "_threads": 5634,
      "global_": 5635,
      "initrd_filename": 5636,
      "Send": 5637,
      "Vol": 5638,
      "URI": 5639,
      "hwctx": 5640,
      "disabled": 5641,
      "C1": 5642,
      "mg": 5643,
      "opc": 5644,
      "bytes_left": 5645,
      "WL": 5646,
      "board": 5647,
      "discard": 5648,
      "MD5": 5649,
      "SYS": 5650,
      "NORMA": 5651,
      "yyaccept": 5652,
      "skb_": 5653,
      "KB": 5654,
      "SK_": 5655,
      "192": 5656,
      "ntohs": 5657,
      "_COL": 5658,
      "ise_": 5659,
      "uuid": 5660,
      "ECC": 5661,
      "raw_sample": 5662,
      "warn": 5663,
      "_count_": 5664,
      "slow": 5665,
      "rcu": 5666,
      "PIX_FMT_BGR": 5667,
      "DX": 5668,
      "leng": 5669,
      "DW": 5670,
      "Meta": 5671,
      "++];": 5672,
      "gdTrueColor": 5673,
      "received": 5674,
      "DYNAM": 5675,
      "RUN": 5676,
      "GSS": 5677,
      "cb_": 5678,
      "tu": 5679,
      "_mm": 5680,
      "yy60": 5681,
      "endl": 5682,
      "mmio": 5683,
      "trunc": 5684,
      "Flag": 5685,
      "intr": 5686,
      "CODEC_TYPE_": 5687,
      "Token": 5688,
      "sqlite": 5689,
      "ency": 5690,
      "specified": 5691,
      "TARGET_PAGE_SIZE": 5692,
      "HP": 5693,
      "Release": 5694,
      "tile_": 5695,
      "Match": 5696,
      "Red": 5697,
      "_XML_Parse": 5698,
      "ga": 5699,
      "_SINGLE_BYTES": 5700,
      "_XML_Parse_SINGLE_BYTES": 5701,
      "rade": 5702,
      "_CONT": 5703,
      "Only": 5704,
      "clamp": 5705,
      "ION_": 5706,
      "_fast": 5707,
      "drive": 5708,
      "ARRAY_": 5709,
      "ETH": 5710,
      "green": 5711,
      "EL_": 5712,
      "alk": 5713,
      "_port_": 5714,
      "true_": 5715,
      "raw_": 5716,
      "again": 5717,
      "irqs": 5718,
      "_formats": 5719,
      "source_": 5720,
      "pen": 5721,
      "_timestamp": 5722,
      "_reset_": 5723,
      "Act": 5724,
      "cs_": 5725,
      "help": 5726,
      "intel": 5727,
      "asf_": 5728,
      "ACTI": 5729,
      "command_": 5730,
      "TARGET_FMT_": 5731,
      "igger": 5732,
      "Current": 5733,
      "insert": 5734,
      "ES_": 5735,
      "oformat": 5736,
      "yyleng": 5737,
      "Decoder": 5738,
      "ager": 5739,
      "Oper": 5740,
      "dmv_": 5741,
      "abs_": 5742,
      "TF_LITE_": 5743,
      "scription": 5744,
      "IX": 5745,
      "sse": 5746,
      "_sync": 5747,
      "_cell": 5748,
      "bits_per": 5749,
      "timer_": 5750,
      "ToYV12": 5751,
      "dbg": 5752,
      "coded_frame": 5753,
      "QString": 5754,
      "_sing": 5755,
      "fault_": 5756,
      "running": 5757,
      "Unsupported": 5758,
      "property": 5759,
      "Fill": 5760,
      "OF_": 5761,
      "uart_": 5762,
      "lit_": 5763,
      "packets": 5764,
      "_bits_": 5765,
      "gnc_": 5766,
      "Function": 5767,
      "ecx": 5768,
      "kz": 5769,
      "snd": 5770,
      "ason": 5771,
      "cpu_to_le16": 5772,
      "dgnc_": 5773,
      "sr_": 5774,
      "extent": 5775,
      "paddw": 5776,
      "rac_get_": 5777,
      "da": 5778,
      "_alloc": 5779,
      "_level": 5780,
      "addr_string": 5781,
      "0x0f": 5782,
      "Component": 5783,
      "cu": 5784,
      "alette": 5785,
      "_pending": 5786,
      "POS": 5787,
      "Frames": 5788,
      "fragment_": 5789,
      "Lay": 5790,
      "pdata": 5791,
      "_CHANNEL_": 5792,
      "TARGET_FMT_lx": 5793,
      "=\"": 5794,
      "TT": 5795,
      "srv": 5796,
      "argument": 5797,
      "STER": 5798,
      "picture_structure": 5799,
      "bitrate": 5800,
      "compressed_": 5801,
      "_cleanup": 5802,
      "Mult": 5803,
      "asoc": 5804,
      "ASY": 5805,
      "\"<!": 5806,
      "edx": 5807,
      "TCG_COND_": 5808,
      "First": 5809,
      "sav": 5810,
      "idata": 5811,
      "yy12": 5812,
      "qemu_mallocz": 5813,
      "calcul": 5814,
      "USH": 5815,
      "Scale": 5816,
      "App": 5817,
      "nbits": 5818,
      "gen_helper_": 5819,
      "sli": 5820,
      "DESC_": 5821,
      "_field_": 5822,
      "51": 5823,
      "6F": 5824,
      "lv": 5825,
      "location": 5826,
      "edge_emu_buffer": 5827,
      "g_new": 5828,
      "_poc": 5829,
      "hostname": 5830,
      "PCI_DEVICE_": 5831,
      "tcg_temp_free_": 5832,
      "unique": 5833,
      "EVP": 5834,
      "sPAPR": 5835,
      "CODEC_ID": 5836,
      "WORD32": 5837,
      "DYNAMIC": 5838,
      "esc": 5839,
      "poll": 5840,
      "tmpvar": 5841,
      "ached": 5842,
      "DGNC_": 5843,
      "Args": 5844,
      "xen_": 5845,
      "ELE": 5846,
      "VNC_": 5847,
      "nic": 5848,
      "runtime": 5849,
      "b_xy": 5850,
      "shif": 5851,
      "__get_user": 5852,
      "0x03": 5853,
      "Track": 5854,
      "Norm": 5855,
      "Tim": 5856,
      "avformat": 5857,
      "pj_": 5858,
      "X509": 5859,
      "_ts": 5860,
      "_call": 5861,
      "LZ": 5862,
      "OW": 5863,
      "sx": 5864,
      "allowed": 5865,
      "]++;": 5866,
      "p0": 5867,
      "sive": 5868,
      "slices": 5869,
      "Func": 5870,
      "mi_ctx": 5871,
      "q1": 5872,
      "_border": 5873,
      "rtsp": 5874,
      "content_": 5875,
      "secret": 5876,
      "sqrt": 5877,
      "RV": 5878,
      "ret_": 5879,
      "transfer": 5880,
      "444P": 5881,
      "_bit_": 5882,
      "MATRO": 5883,
      "blocking": 5884,
      "EXTR": 5885,
      "MATROSK": 5886,
      "erate": 5887,
      "types": 5888,
      "dcl": 5889,
      "0x1F": 5890,
      "Property": 5891,
      "avccontext": 5892,
      "sperpixel": 5893,
      "0x6": 5894,
      "dstY": 5895,
      "ADD_": 5896,
      "_dump": 5897,
      "_delt": 5898,
      "mbnum": 5899,
      "jpeg_": 5900,
      "kTfLite": 5901,
      "_dma": 5902,
      "qtest_": 5903,
      "s_offset": 5904,
      "_parameters": 5905,
      "h263": 5906,
      "variable": 5907,
      "NDPI_PROTOCOL_CATEG": 5908,
      "DCT": 5909,
      "ISCSI": 5910,
      "CB": 5911,
      "rcv": 5912,
      "msp": 5913,
      "reco": 5914,
      "peak": 5915,
      "APP": 5916,
      "append_": 5917,
      "Group": 5918,
      "eo": 5919,
      "regist": 5920,
      "aiocb": 5921,
      "500": 5922,
      "QERR_": 5923,
      "_node": 5924,
      "hb": 5925,
      "handle_": 5926,
      "extents": 5927,
      "writer": 5928,
      "ignore": 5929,
      "yet": 5930,
      "states": 5931,
      "activ": 5932,
      "../": 5933,
      "word1": 5934,
      "]\",": 5935,
      "phys": 5936,
      "termin": 5937,
      "FromArray": 5938,
      "QUEUE_": 5939,
      "perror": 5940,
      "colors": 5941,
      "super": 5942,
      "RETURN": 5943,
      "tcg_out32": 5944,
      "MSP": 5945,
      "_metadata": 5946,
      "Pool": 5947,
      "Elements": 5948,
      "iCanon": 5949,
      "vring": 5950,
      "sts": 5951,
      "num_s": 5952,
      "arg3": 5953,
      "testAdd": 5954,
      "queues": 5955,
      "BaseHelper": 5956,
      "ns_": 5957,
      "sec_": 5958,
      "Desc": 5959,
      "2str": 5960,
      "XCS": 5961,
      "ehdr": 5962,
      "yy13": 5963,
      "BUS": 5964,
      "d2": 5965,
      "adjust": 5966,
      "get_errno": 5967,
      "offload": 5968,
      "nest": 5969,
      "ENABLE_": 5970,
      "IPE_": 5971,
      "long_": 5972,
      ">\";": 5973,
      "ypto": 5974,
      "loop_filter_": 5975,
      "arguments": 5976,
      "Mutex": 5977,
      "coeff_": 5978,
      "_STREAM": 5979,
      "AddInputFromArray": 5980,
      "HDR": 5981,
      "data_format": 5982,
      "vmx": 5983,
      "optind": 5984,
      "idct_permutation": 5985,
      "migration": 5986,
      "rtl8xxxu_write": 5987,
      "Batch": 5988,
      "retry": 5989,
      "buf_index": 5990,
      "OMX_Error": 5991,
      "bits_per_raw_sample": 5992,
      "_create_": 5993,
      "'@": 5994,
      "Y1": 5995,
      "_mar": 5996,
      "_frame_free": 5997,
      "requested": 5998,
      "exception_index": 5999,
      "Py": 6000,
      "tell": 6001,
      "ORMAT": 6002,
      "given": 6003,
      "MER": 6004,
      "_family": 6005,
      "curr_": 6006,
      "_hash": 6007,
      "hot": 6008,
      "import": 6009,
      "dh": 6010,
      "throw": 6011,
      "me_ctx": 6012,
      "lstm": 6013,
      "ikon": 6014,
      "cape": 6015,
      "async_": 6016,
      "Reset": 6017,
      "rfbScreen": 6018,
      "border": 6019,
      "_pas": 6020,
      "gets": 6021,
      "iod": 6022,
      "order_": 6023,
      "compressed": 6024,
      "direct_": 6025,
      "wc": 6026,
      "amma": 6027,
      "MACH": 6028,
      "VALID": 6029,
      "worker": 6030,
      "CC_OP_": 6031,
      "boot_": 6032,
      "TEST_": 6033,
      "tap": 6034,
      "AVMEDIA_TYPE_VIDEO": 6035,
      "coefficients": 6036,
      "breg": 6037,
      "policy": 6038,
      "STATUS": 6039,
      "yuv2packed": 6040,
      "FRAME": 6041,
      "BUG_ON": 6042,
      "uint_": 6043,
      "i0": 6044,
      "_message": 6045,
      "WRITE_": 6046,
      "dynamic": 6047,
      "\"[": 6048,
      "S390": 6049,
      "lpc_": 6050,
      "EXTER": 6051,
      "ld_": 6052,
      "_PADDING": 6053,
      "DIC": 6054,
      "Pin": 6055,
      "interle": 6056,
      "_private": 6057,
      "_CHANNEL": 6058,
      "x5": 6059,
      "RAW": 6060,
      "422P": 6061,
      "g_malloc0": 6062,
      "av_assert0": 6063,
      "Enable": 6064,
      "real_": 6065,
      "constr": 6066,
      "VERIF": 6067,
      "optarg": 6068,
      "root_": 6069,
      "pcm_": 6070,
      "IAL": 6071,
      "dl": 6072,
      "fft": 6073,
      "AFF": 6074,
      "WD_": 6075,
      "FAT": 6076,
      "operties": 6077,
      "tls_": 6078,
      "%.": 6079,
      "iso": 6080,
      "_FOREACH": 6081,
      "parse_": 6082,
      "EMPTY": 6083,
      "'`": 6084,
      "8X": 6085,
      "A1": 6086,
      "mail": 6087,
      "_payload": 6088,
      "KVM_": 6089,
      "l_current_": 6090,
      "mqc": 6091,
      "_SLO": 6092,
      "threads": 6093,
      "device_id": 6094,
      "ource_": 6095,
      "sto": 6096,
      "utdown": 6097,
      "HEADER_": 6098,
      "coded_sample": 6099,
      "TSRMLS_CC": 6100,
      "props": 6101,
      "_SEC": 6102,
      "WARD": 6103,
      "105": 6104,
      "05": 6105,
      "_SIG": 6106,
      "RP": 6107,
      "request_": 6108,
      "0x9": 6109,
      "dow_": 6110,
      "QEMU_": 6111,
      "sched": 6112,
      "bits_per_coded_sample": 6113,
      "av_frame_free": 6114,
      "_FR": 6115,
      "FIFO": 6116,
      "table_": 6117,
      "_slices": 6118,
      "infer": 6119,
      "ary_": 6120,
      "blocks_": 6121,
      "key_frame": 6122,
      "msix": 6123,
      "unlock_irq": 6124,
      "Err": 6125,
      "OV": 6126,
      "coup": 6127,
      "CLI": 6128,
      "Empty": 6129,
      "l1_table": 6130,
      "AVR": 6131,
      "ALP": 6132,
      "slen": 6133,
      "doesn": 6134,
      "rta": 6135,
      "chap": 6136,
      "plication": 6137,
      "COME": 6138,
      "display_": 6139,
      "window_": 6140,
      "chroma_qp": 6141,
      "fpu": 6142,
      "getc": 6143,
      "vals": 6144,
      "vgdev": 6145,
      "ide_": 6146,
      "qemu_set_": 6147,
      "points": 6148,
      "1f": 6149,
      "USE": 6150,
      "srq": 6151,
      "ELCOME": 6152,
      "SYS_": 6153,
      "AVERROR_PAT": 6154,
      "user_data": 6155,
      "pv_buf": 6156,
      "CHWELCOME": 6157,
      "ALPHA": 6158,
      "AVERROR_PATCHWELCOME": 6159,
      "Eq": 6160,
      "_bs": 6161,
      "num_re": 6162,
      "_predi": 6163,
      "READ_": 6164,
      "TCGv_": 6165,
      "i2c": 6166,
      "view": 6167,
      "data_offset": 6168,
      "example": 6169,
      "layer_": 6170,
      "Call": 6171,
      "Enum": 6172,
      "PE_": 6173,
      "contr": 6174,
      "main_": 6175,
      "axis": 6176,
      "dca": 6177,
      "iomem": 6178,
      "MPI": 6179,
      "dest_cb": 6180,
      "Parser": 6181,
      "VMX": 6182,
      "ut64": 6183,
      "thread_count": 6184,
      "mtab": 6185,
      "Exp": 6186,
      "43": 6187,
      "s_get_": 6188,
      "0x08": 6189,
      "n2": 6190,
      "avoid": 6191,
      "32BITS": 6192,
      "acity": 6193,
      "_SIZE_": 6194,
      "rects": 6195,
      "libs": 6196,
      "VP56": 6197,
      "index_entries": 6198,
      "ssh": 6199,
      "_FILTER": 6200,
      "incre": 6201,
      "been": 6202,
      "frame_rate": 6203,
      "EXTRACT_32BITS": 6204,
      "AF_INET": 6205,
      "algo": 6206,
      "leep": 6207,
      "Auth": 6208,
      "Fil": 6209,
      "calloc": 6210,
      "vhost": 6211,
      "_high": 6212,
      "ACCEP": 6213,
      "ff_c": 6214,
      "parameter": 6215,
      "non_zero_count_": 6216,
      "overlap": 6217,
      "non_zero_count_cache": 6218,
      "nop": 6219,
      "rep": 6220,
      "segs": 6221,
      "AV_COPY": 6222,
      "enough": 6223,
      "War": 6224,
      "lay_": 6225,
      "_result": 6226,
      "Mount": 6227,
      "nos4210": 6228,
      "??": 6229,
      "RDMA": 6230,
      "GET_CLASS": 6231,
      "encode_": 6232,
      "MIPS": 6233,
      "_method": 6234,
      "compo": 6235,
      "extended_data": 6236,
      "oth": 6237,
      "hl": 6238,
      "hy": 6239,
      "_score": 6240,
      "V9fs": 6241,
      "006": 6242,
      "J2": 6243,
      "h1": 6244,
      "ateg": 6245,
      "dest_cr": 6246,
      "ave_a": 6247,
      "memory_region_init_": 6248,
      "WOR": 6249,
      "stream_ptr": 6250,
      "vfio": 6251,
      "blen": 6252,
      "wi": 6253,
      "_MAX": 6254,
      "colour": 6255,
      "_tot": 6256,
      "FLOAT": 6257,
      "DeviceState": 6258,
      "dma_": 6259,
      "Tile": 6260,
      "p_t": 6261,
      "_indic": 6262,
      "_PER_": 6263,
      "_TX": 6264,
      "avio_rl32": 6265,
      "'`')": 6266,
      "Soft": 6267,
      "fusion": 6268,
      "REQ": 6269,
      "mb_intra": 6270,
      "left_xy": 6271,
      "sei": 6272,
      "00e": 6273,
      "yy8": 6274,
      "children": 6275,
      "_32": 6276,
      "bn": 6277,
      "_token": 6278,
      "bf": 6279,
      "UNIT_": 6280,
      "out_buf": 6281,
      "temp_": 6282,
      "backup": 6283,
      "IPMI": 6284,
      "l2cap": 6285,
      "LensData": 6286,
      "distance": 6287,
      "TLB": 6288,
      "tc_basic": 6289,
      "ADDRESS": 6290,
      "I0": 6291,
      "interpol": 6292,
      "4096": 6293,
      "A0": 6294,
      "orde": 6295,
      "CPUX86": 6296,
      "bdrv_p": 6297,
      "CPUX86State": 6298,
      "Media": 6299,
      "PAV": 6300,
      "dra": 6301,
      "Ctr": 6302,
      "zu": 6303,
      "yy19": 6304,
      "SIMD_": 6305,
      "_CTRL": 6306,
      "0e": 6307,
      "zstream": 6308,
      "chroma_format": 6309,
      "ndpi_set_": 6310,
      "coolkey_": 6311,
      "{\"": 6312,
      "stuff": 6313,
      "_FORMAT_": 6314,
      "*)((": 6315,
      "archive": 6316,
      "Left": 6317,
      "NI": 6318,
      "cision": 6319,
      "One": 6320,
      "sect": 6321,
      "NEW": 6322,
      "Chunk": 6323,
      "direction": 6324,
      "VR": 6325,
      "_md": 6326,
      "_ho": 6327,
      "interpret": 6328,
      "Callback": 6329,
      "Plan": 6330,
      "cod": 6331,
      "groups": 6332,
      "_BOOK": 6333,
      "cpe": 6334,
      "mmu_": 6335,
      "coroutine_": 6336,
      ">()(": 6337,
      "BT_": 6338,
      "TCH": 6339,
      "ou": 6340,
      "uchar": 6341,
      "debug_": 6342,
      "phase": 6343,
      "_pointer": 6344,
      "_FILE_": 6345,
      "Cor": 6346,
      "ram_addr_t": 6347,
      "SRS": 6348,
      "ovl_": 6349,
      "g_test_": 6350,
      "broad": 6351,
      "SIMD_WIDTH": 6352,
      "dsty": 6353,
      "_idct_": 6354,
      "hwaddr": 6355,
      "be_": 6356,
      "q2": 6357,
      "wo": 6358,
      "numer": 6359,
      "UTF": 6360,
      "ACHE_": 6361,
      "'@')": 6362,
      "Uri": 6363,
      "raw_data": 6364,
      "cabd": 6365,
      "even": 6366,
      "_subprotocol": 6367,
      "ENTITY": 6368,
      "ual_": 6369,
      "attern": 6370,
      "cert_": 6371,
      "krb5_": 6372,
      "_tick": 6373,
      "itof": 6374,
      "uby": 6375,
      "101": 6376,
      "scaling": 6377,
      "frame_num": 6378,
      "R0": 6379,
      "_SLIC": 6380,
      "_T1": 6381,
      "62": 6382,
      "Web": 6383,
      "verse": 6384,
      "dcn": 6385,
      "Destroy": 6386,
      "R2": 6387,
      "ports_a": 6388,
      "owner": 6389,
      "bt_": 6390,
      "BUS_": 6391,
      "MOBI": 6392,
      "NS": 6393,
      "eof": 6394,
      "helper": 6395,
      "Load": 6396,
      "ports_b": 6397,
      "clude": 6398,
      "sis": 6399,
      "undef": 6400,
      "META": 6401,
      "IPV": 6402,
      "_TIME": 6403,
      "TARGET_PAGE_MASK": 6404,
      "UPDATE_": 6405,
      "SIMD_WIDTH_FP32": 6406,
      "git_": 6407,
      "separ": 6408,
      "orith": 6409,
      "====": 6410,
      "s32_op": 6411,
      "speed": 6412,
      "TPM": 6413,
      "stage": 6414,
      "_space": 6415,
      "ness": 6416,
      "sockaddr_in": 6417,
      "GENER": 6418,
      "1000000": 6419,
      "ADPC": 6420,
      "HASH": 6421,
      "completion": 6422,
      "L0": 6423,
      "Method": 6424,
      "dequant": 6425,
      "mb_num": 6426,
      "codecpar": 6427,
      "ac_val": 6428,
      "character": 6429,
      "start_code": 6430,
      "journal_": 6431,
      "Service": 6432,
      "_sw": 6433,
      "gd_itof": 6434,
      "reverb_": 6435,
      "mips32_op": 6436,
      "gd_itofx": 6437,
      "_fir": 6438,
      "DCA_": 6439,
      "_socket_": 6440,
      "direntry": 6441,
      "ndpi_set_proto_defaults": 6442,
      "Jpeg": 6443,
      "mk": 6444,
      "ToString": 6445,
      "limb": 6446,
      "PCRE2": 6447,
      "002": 6448,
      "_planes": 6449,
      "Child": 6450,
      "T_FLAG_": 6451,
      "_array": 6452,
      "EXEC": 6453,
      "C3": 6454,
      "gems": 6455,
      "mruby": 6456,
      "zend_mm": 6457,
      "mrbgems": 6458,
      "assigned": 6459,
      "CONN": 6460,
      "items": 6461,
      "BUFFER_": 6462,
      "LensID": 6463,
      "_V": 6464,
      "line_size": 6465,
      "XML_ERROR_": 6466,
      "alpha_": 6467,
      "pPrivate": 6468,
      "yy14": 6469,
      "last_mv": 6470,
      "Resource": 6471,
      "sub_mb_type": 6472,
      "Headers": 6473,
      "Bl": 6474,
      "reading": 6475,
      "ff_mpeg": 6476,
      "_function": 6477,
      "bytestream2_get_bytes_left": 6478,
      "OC_": 6479,
      "Sele": 6480,
      "csum": 6481,
      "DEPTH": 6482,
      "mount": 6483,
      "otal": 6484,
      "Native": 6485,
      "conv": 6486,
      "filters": 6487,
      "block_align": 6488,
      "effect_": 6489,
      "m4ac": 6490,
      "Has": 6491,
      "_T0": 6492,
      "ypt_": 6493,
      "_tags": 6494,
      "assertEqualInt": 6495,
      "curidx": 6496,
      "av_buffer": 6497,
      "notify_": 6498,
      "sfer_": 6499,
      "_perm": 6500,
      "BufSize": 6501,
      "sync_": 6502,
      "inal": 6503,
      "INE_": 6504,
      "START_": 6505,
      "Warning": 6506,
      "3f": 6507,
      "clo": 6508,
      "_sp": 6509,
      "ntp": 6510,
      "Setting": 6511,
      "Simple": 6512,
      "sity": 6513,
      "leaf": 6514,
      "vm_clock": 6515,
      "_PRIV": 6516,
      "Complex": 6517,
      "QSPI": 6518,
      "memsize": 6519,
      "STRIPE_": 6520,
      "Listener": 6521,
      "_tree": 6522,
      "princ": 6523,
      "vmstate_": 6524,
      "A2": 6525,
      "TCG_TYPE_": 6526,
      "tsk": 6527,
      "REVER": 6528,
      "_print_": 6529,
      "0x8000": 6530,
      "comedi_": 6531,
      "Metadata": 6532,
      "modes": 6533,
      "_bitmap": 6534,
      "wrong": 6535,
      "ff_dlog": 6536,
      "istr": 6537,
      "least": 6538,
      "AV_CH": 6539,
      "_response": 6540,
      "Samples": 6541,
      "ENSURE_": 6542,
      "/(": 6543,
      "sat": 6544,
      "blue": 6545,
      "frame_len": 6546,
      "resolver": 6547,
      "GNU": 6548,
      "absl": 6549,
      "_have_a": 6550,
      "can_have_a": 6551,
      "FAILED": 6552,
      "gdTrueColorGet": 6553,
      "can_have_a_subprotocol": 6554,
      "seed": 6555,
      "0xFFFF": 6556,
      "required": 6557,
      "_COLOR": 6558,
      "DYNAMIC_TYPE_": 6559,
      "setprop": 6560,
      "QUEST": 6561,
      "_BOOKE_": 6562,
      "'\",": 6563,
      "_device": 6564,
      "dj": 6565,
      "fclose": 6566,
      "Values": 6567,
      "H264Context": 6568,
      "QCO": 6569,
      "e2": 6570,
      "INS": 6571,
      "bytesperpixel": 6572,
      "LOG_DIS": 6573,
      "_FIELD": 6574,
      "pipes": 6575,
      "AV_RL16": 6576,
      "t5": 6577,
      "0x5": 6578,
      "colorspace": 6579,
      "_transaction": 6580,
      "FAILURE": 6581,
      "GUE": 6582,
      "locked": 6583,
      "ARY": 6584,
      "Sto": 6585,
      "_thread_": 6586,
      "SPR_BOOKE_": 6587,
      "Elf": 6588,
      "_full": 6589,
      "publ": 6590,
      "emux": 6591,
      "BZ": 6592,
      "Visi": 6593,
      "ert": 6594,
      "because": 6595,
      "Idx": 6596,
      "ep_": 6597,
      "many": 6598,
      "_mmx": 6599,
      "AUTO": 6600,
      "_PRI": 6601,
      "_FEAT": 6602,
      "ELEMS": 6603,
      "erm": 6604,
      "m_data": 6605,
      "alignment": 6606,
      "corrup": 6607,
      "copied": 6608,
      "memmove": 6609,
      "tcm_": 6610,
      "ICE_": 6611,
      "based": 6612,
      "cancel": 6613,
      "VLAN": 6614,
      "ps_cur": 6615,
      "aligned_": 6616,
      "vtt_": 6617,
      "status_": 6618,
      "Change": 6619,
      "initialized": 6620,
      "MPEG4": 6621,
      "ff_dca": 6622,
      "TD": 6623,
      "_head": 6624,
      "wptr": 6625,
      "major": 6626,
      "block_offset": 6627,
      "linear": 6628,
      "cached": 6629,
      "PAVGB": 6630,
      "rf": 6631,
      "sin_addr": 6632,
      "ctb_": 6633,
      "120": 6634,
      "cpu_flags": 6635,
      "weech": 6636,
      "pped": 6637,
      "cpu_gpr_d": 6638,
      "lb": 6639,
      "mpl": 6640,
      "lock_flags": 6641,
      "_CLASS": 6642,
      "YYMARKER": 6643,
      "0x04": 6644,
      "IS_INTRA": 6645,
      "spin_unlock_irq": 6646,
      "Transfer": 6647,
      "opp": 6648,
      "gamma": 6649,
      "arith": 6650,
      "maximum": 6651,
      "CharDriver": 6652,
      "_PADDING_SIZE": 6653,
      "ava": 6654,
      "av_fifo": 6655,
      "))))": 6656,
      "samplesA": 6657,
      "Profile": 6658,
      "AMPLE": 6659,
      "GM": 6660,
      "utable": 6661,
      "AR_": 6662,
      "_PROP": 6663,
      "VERBO": 6664,
      "FF_ARRAY_": 6665,
      "mutex_unlock": 6666,
      "sidue": 6667,
      "HEADER_SIZE": 6668,
      "FF_ARRAY_ELEMS": 6669,
      "_CAP_": 6670,
      "starts": 6671,
      "plic": 6672,
      "]){": 6673,
      "input_min": 6674,
      "Cal": 6675,
      "LM": 6676,
      "route": 6677,
      "syms": 6678,
      "0x100": 6679,
      "QIOChannel": 6680,
      "style": 6681,
      "vmci_transport_": 6682,
      "uart": 6683,
      "INPUT_BUFFER": 6684,
      "sqlite3": 6685,
      "AGE_": 6686,
      "H2": 6687,
      "ched": 6688,
      "block_w": 6689,
      "CI": 6690,
      "\"\\\"": 6691,
      "packet_size": 6692,
      "datalen": 6693,
      "resolution": 6694,
      "Total": 6695,
      "strn": 6696,
      "INC": 6697,
      "egin": 6698,
      "_timeout": 6699,
      "Window": 6700,
      "/**": 6701,
      "lengths": 6702,
      "temp2": 6703,
      "RTSP": 6704,
      "STRING": 6705,
      "uriA": 6706,
      "AVRational": 6707,
      "startcode": 6708,
      "input_max": 6709,
      "history": 6710,
      "PF_": 6711,
      "_number": 6712,
      "qmp": 6713,
      "ims": 6714,
      "be64": 6715,
      "slice_type": 6716,
      "TF_LITE_ENSURE_": 6717,
      "duct": 6718,
      "fseek": 6719,
      "external": 6720,
      "_partition": 6721,
      "VMXNET": 6722,
      "cons": 6723,
      "sets": 6724,
      "status_t": 6725,
      "levels": 6726,
      "Uni": 6727,
      "ADDR_": 6728,
      "RADEON": 6729,
      "By": 6730,
      "mime": 6731,
      "HELP": 6732,
      "motion_x": 6733,
      "AVMEDIA_TYPE_AUDIO": 6734,
      "_CB": 6735,
      "IDE_": 6736,
      "D_RE": 6737,
      "\"%\"": 6738,
      "SPEC": 6739,
      "INPUT_BUFFER_PADDING_SIZE": 6740,
      "sf_idx": 6741,
      "outlen": 6742,
      "chrDst": 6743,
      "tv_sec": 6744,
      "vir": 6745,
      "loss": 6746,
      "0x1000": 6747,
      "escape": 6748,
      "RTC_": 6749,
      "Js": 6750,
      "Plugin": 6751,
      "VNC": 6752,
      "cm_": 6753,
      "sge": 6754,
      "_TO_": 6755,
      "PATH": 6756,
      "driver_": 6757,
      "mb_pos": 6758,
      "_default_": 6759,
      "image_info": 6760,
      "EINTR": 6761,
      "Sig": 6762,
      "lld": 6763,
      "secur": 6764,
      "ff_s": 6765,
      "CONT": 6766,
      "Exec": 6767,
      "DOW": 6768,
      "batch_size": 6769,
      "r_buf_read_": 6770,
      "Visitor": 6771,
      "note": 6772,
      "_callback": 6773,
      "tcg_temp_new": 6774,
      "psubw": 6775,
      "Put": 6776,
      "co_": 6777,
      "Dictionary": 6778,
      "AV_TIME_": 6779,
      "i_i32": 6780,
      "bregion": 6781,
      "CACHE": 6782,
      "_check": 6783,
      "base_": 6784,
      "ence_": 6785,
      "matching": 6786,
      "Content": 6787,
      "get2": 6788,
      "_COUNT": 6789,
      "operation": 6790,
      "thrott": 6791,
      "libssh": 6792,
      "110": 6793,
      "I32": 6794,
      "tho": 6795,
      "buffer_add": 6796,
      "sta": 6797,
      "ff_init_": 6798,
      "exp_": 6799,
      "ByteIOContext": 6800,
      "Scope": 6801,
      "_inc": 6802,
      "ENC_": 6803,
      "_chroma": 6804,
      "last_index": 6805,
      "#%": 6806,
      "src0": 6807,
      "geo": 6808,
      "windows": 6809,
      "bdrv_get_": 6810,
      "_disable": 6811,
      "INSERT_": 6812,
      "}));": 6813,
      "ANY": 6814,
      "num_env": 6815,
      "384": 6816,
      "avio_wb": 6817,
      "FATAL": 6818,
      "release_buffer": 6819,
      "655": 6820,
      "bat": 6821,
      "elt": 6822,
      "_fe_": 6823,
      "FOUND": 6824,
      "Variant": 6825,
      "want": 6826,
      "incr": 6827,
      "NVRAM": 6828,
      "draw_": 6829,
      "\\\\": 6830,
      "cho": 6831,
      "TROL": 6832,
      "Delete": 6833,
      "GF_FALSE": 6834,
      "_timer_": 6835,
      "OrRemove": 6836,
      "strict": 6837,
      "dsize": 6838,
      "_SZ": 6839,
      "BUF_SIZE": 6840,
      "pContext": 6841,
      "_CRE": 6842,
      "subband": 6843,
      "u_int": 6844,
      "information": 6845,
      "hwaccel": 6846,
      "Select": 6847,
      "GPU": 6848,
      "PF": 6849,
      "INF": 6850,
      "f_code": 6851,
      "REGS": 6852,
      "PRIu64": 6853,
      "luma_": 6854,
      "recv_": 6855,
      "AES_": 6856,
      "_sa": 6857,
      "plat": 6858,
      "_pic_": 6859,
      "uccess": 6860,
      "optimization": 6861,
      "ux_": 6862,
      "_h_": 6863,
      "capabilities": 6864,
      "none": 6865,
      "_fill": 6866,
      "quire": 6867,
      "_PKT_": 6868,
      ")\");": 6869,
      "opj": 6870,
      "round_": 6871,
      "mono": 6872,
      "UserData": 6873,
      "transport": 6874,
      "C2": 6875,
      "HH": 6876,
      "IW": 6877,
      "commit_": 6878,
      "_CONN": 6879,
      "mutex_lock": 6880,
      "bank": 6881,
      "obj_t": 6882,
      "':')": 6883,
      "PAGE_SIZE": 6884,
      "STRIPE_WIDTH": 6885,
      "nchannels": 6886,
      "recor": 6887,
      "MemoryRegion": 6888,
      "ISOM_": 6889,
      "RB": 6890,
      "Spec": 6891,
      "_request_": 6892,
      "network": 6893,
      "cpu_physical_memory_": 6894,
      "rem": 6895,
      "ination": 6896,
      "_pid": 6897,
      "var_off": 6898,
      "EAP": 6899,
      "_get": 6900,
      "codsty": 6901,
      "GetOutput": 6902,
      "qio_channel": 6903,
      "plugin": 6904,
      "\"]": 6905,
      "Xen": 6906,
      "_rx": 6907,
      "NETIF": 6908,
      "encrypt": 6909,
      "dummy_": 6910,
      "buckets": 6911,
      "testAddOrRemove": 6912,
      "NETIF_F": 6913,
      "testAddOrRemoveBaseHelper": 6914,
      "Fake": 6915,
      "motion_y": 6916,
      "0x80000000": 6917,
      "normalize": 6918,
      "aio_context": 6919,
      "BIO": 6920,
      "erve": 6921,
      "drm_": 6922,
      "writeb": 6923,
      "tests": 6924,
      "intra4x4": 6925,
      "HAS_": 6926,
      "idct_put": 6927,
      "_SOCK": 6928,
      "MSPACK_": 6929,
      "Cle": 6930,
      "FORMAT_": 6931,
      "reloc": 6932,
      "_clk": 6933,
      "finished": 6934,
      "yy_text": 6935,
      "VERBOSE": 6936,
      "qmat": 6937,
      "aries": 6938,
      "http_": 6939,
      "AV_RB32": 6940,
      "ote": 6941,
      "IPPROTO": 6942,
      "rtp_": 6943,
      "multiple": 6944,
      "custom": 6945,
      "GRO": 6946,
      "ony": 6947,
      "AVA": 6948,
      "Utils": 6949,
      "6_addr": 6950,
      "lowe": 6951,
      "_cred": 6952,
      "DBG": 6953,
      "visit_type_": 6954,
      "_serv": 6955,
      "andid": 6956,
      "INTERRUPT_": 6957,
      "b8_stride": 6958,
      "emuxContext": 6959,
      "inter_": 6960,
      "_Co": 6961,
      "_FS_": 6962,
      "BufferRef": 6963,
      "transl": 6964,
      "_delta": 6965,
      "Find": 6966,
      "kind": 6967,
      "split_": 6968,
      "rank": 6969,
      "Proto": 6970,
      "0x3f": 6971,
      "SEEK_CUR": 6972,
      "RANGE": 6973,
      "lzx": 6974,
      "gre": 6975,
      "nom": 6976,
      "_report": 6977,
      "Reply": 6978,
      "Virtual": 6979,
      "avio_rb32": 6980,
      "reason": 6981,
      "configuration": 6982,
      "MV_F": 6983,
      ")].": 6984,
      "Flush": 6985,
      "possible": 6986,
      "diag_index": 6987,
      "decl": 6988,
      "_fixed": 6989,
      "exe_": 6990,
      "iltin": 6991,
      "DYNAMIC_TYPE_ECC": 6992,
      "_save": 6993,
      "d_size": 6994,
      "qemu_coroutine_": 6995,
      "top_border": 6996,
      "tcg_gen_and": 6997,
      "algorith": 6998,
      "QTAILQ_": 6999,
      "POWERPC_EXCP": 7000,
      "8s": 7001,
      "pop": 7002,
      "q0": 7003,
      "_CTX_": 7004,
      "process_": 7005,
      "Mach": 7006,
      "TT_": 7007,
      "bnd": 7008,
      "arser": 7009,
      "ings": 7010,
      "lock_irq": 7011,
      "_sf": 7012,
      "OPTION": 7013,
      "DataType": 7014,
      "SKIP": 7015,
      "respon": 7016,
      "_sym": 7017,
      "v4l2_": 7018,
      "wctx": 7019,
      "_report_": 7020,
      "yy11": 7021,
      "Inc": 7022,
      "pret_": 7023,
      "interpret_": 7024,
      "attached": 7025,
      "avcodec": 7026,
      "bitmap_": 7027,
      "netbk": 7028,
      "folder": 7029,
      "helper_": 7030,
      "acpi": 7031,
      "Iterator": 7032,
      "Return": 7033,
      "_FIR": 7034,
      "VEND": 7035,
      "light": 7036,
      "get_byte": 7037,
      "Dict": 7038,
      "LOCAL": 7039,
      "Cmd": 7040,
      "COPY": 7041,
      "ier": 7042,
      "xp": 7043,
      "_START_": 7044,
      "_time_": 7045,
      "vga_": 7046,
      "icsk": 7047,
      "LONG_": 7048,
      "backtrack": 7049,
      "FILTER": 7050,
      "shift_": 7051,
      "Man": 7052,
      "ND_": 7053,
      "_env": 7054,
      "SHPC": 7055,
      "strncpy": 7056,
      "_THREAD": 7057,
      "_err": 7058,
      "quency": 7059,
      "produ": 7060,
      "B_SIZE": 7061,
      "_add_": 7062,
      "isr": 7063,
      "_CODE_": 7064,
      "AV_PICTURE_TYPE_I": 7065,
      "KERN_ERR": 7066,
      "_STRING": 7067,
      "D3D11": 7068,
      "LAR": 7069,
      "\",\"": 7070,
      "ROMA": 7071,
      "ieee": 7072,
      "IS_ERR": 7073,
      "ms_": 7074,
      "dete": 7075,
      "AN_": 7076,
      "SUCCESS": 7077,
      "TARGET_NR_": 7078,
      "dtext": 7079,
      "keep": 7080,
      "v_edge_pos": 7081,
      "frag_": 7082,
      "Store": 7083,
      "Sup": 7084,
      "SR_": 7085,
      "fregs": 7086,
      "from_": 7087,
      "wise": 7088,
      "icp": 7089,
      "_sha": 7090,
      "qemu_opt_get": 7091,
      "CMD_": 7092,
      "ef": 7093,
      "njs": 7094,
      "0xd": 7095,
      "raise_": 7096,
      "ACPI": 7097,
      "MB_": 7098,
      "sconf": 7099,
      "above": 7100,
      "is_write": 7101,
      "9_": 7102,
      "IB": 7103,
      "ging": 7104,
      "_flat": 7105,
      "comps": 7106,
      "_dec": 7107,
      "ext_parser": 7108,
      "Buffers": 7109,
      "l2_table": 7110,
      "USER_ONLY": 7111,
      "tcm_loop": 7112,
      "Qemu": 7113,
      "flags_": 7114,
      "',')": 7115,
      "bridge": 7116,
      "SocketAddress": 7117,
      "DebugString": 7118,
      "ape": 7119,
      "floor_": 7120,
      "suff": 7121,
      "gf_list_": 7122,
      "sampling": 7123,
      "V4L2": 7124,
      "NDPI_PROTOCOL_CATEGORY_": 7125,
      "HU": 7126,
      "IEE": 7127,
      "VGA": 7128,
      "s0": 7129,
      "tm_": 7130,
      "_serial": 7131,
      "mem_index": 7132,
      "m_len": 7133,
      "_hw": 7134,
      "DeviceClass": 7135,
      "WAIT": 7136,
      "arr": 7137,
      "s_in": 7138,
      "ONT_": 7139,
      "subframe": 7140,
      "bytestream2_skip": 7141,
      "namelen": 7142,
      "add_func": 7143,
      "estim": 7144,
      "SUFF": 7145,
      "CONFIG_USER_ONLY": 7146,
      "_for_each": 7147,
      ")?": 7148,
      "rle": 7149,
      "ipal": 7150,
      "shdr": 7151,
      "cold": 7152,
      "alloc_count": 7153,
      "celt_": 7154,
      "av_rescale_": 7155,
      "uint_fast": 7156,
      "FS_": 7157,
      "rev": 7158,
      "unlink": 7159,
      "AVIOContext": 7160,
      "AK": 7161,
      "eap": 7162,
      "altern": 7163,
      "ame_": 7164,
      "_BASE": 7165,
      "ferent": 7166,
      "next_picture": 7167,
      "AV_RB16": 7168,
      "effective_": 7169,
      "cmos_": 7170,
      "-%": 7171,
      "XER": 7172,
      "fread": 7173,
      "yoff": 7174,
      "mp4": 7175,
      "BUSY": 7176,
      "delayed": 7177,
      "116": 7178,
      "ILL": 7179,
      "_flow": 7180,
      "))[": 7181,
      "_spec": 7182,
      "_cpl": 7183,
      "sv": 7184,
      "off_t": 7185,
      "mem_": 7186,
      "acy": 7187,
      "path_is": 7188,
      "SDL_": 7189,
      "phys_": 7190,
      "ENTRY": 7191,
      "dgnc": 7192,
      ".\",": 7193,
      "nbytes": 7194,
      "resize": 7195,
      "caps": 7196,
      "mmx": 7197,
      "_props": 7198,
      "template": 7199,
      "PIXEL": 7200,
      "without": 7201,
      "_CHUNK": 7202,
      "ATION_": 7203,
      "illegal": 7204,
      "pParse": 7205,
      "ance_": 7206,
      "asm_": 7207,
      "LAST_": 7208,
      "drvdata": 7209,
      "Channels": 7210,
      "BDRVQ": 7211,
      "OVER": 7212,
      "pf_": 7213,
      "where": 7214,
      "elist": 7215,
      "_pb": 7216,
      "pectr": 7217,
      "mit": 7218,
      "ENOENT": 7219,
      "zeroes": 7220,
      "E1000_": 7221,
      "(--": 7222,
      "fat": 7223,
      "ession": 7224,
      "RTMP": 7225,
      "__LINE_": 7226,
      "_transfer": 7227,
      "progres": 7228,
      "SYST": 7229,
      "certific": 7230,
      "_FILE": 7231,
      "follow": 7232,
      "__LINE__": 7233,
      "decompress": 7234,
      "outp": 7235,
      "AMETER": 7236,
      "vision": 7237,
      "BOT": 7238,
      "'-')": 7239,
      "R1": 7240,
      "ASSERT_EQ": 7241,
      "qdict_get_": 7242,
      "mot_val": 7243,
      "olean": 7244,
      "obu": 7245,
      "leno": 7246,
      "_BYTE": 7247,
      "Attribu": 7248,
      "emulated_": 7249,
      "spin_unlock_irqrestore": 7250,
      "sioc": 7251,
      "le16_to_cpu": 7252,
      "Nan": 7253,
      "AVERROR_EOF": 7254,
      "word2": 7255,
      "av_dict_set": 7256,
      "random": 7257,
      "exe_sections": 7258,
      "Machine": 7259,
      "NAT": 7260,
      "Nikon": 7261,
      "xor": 7262,
      "ids": 7263,
      "filt": 7264,
      "ENDI": 7265,
      "writel": 7266,
      "hole": 7267,
      "PROBE_": 7268,
      "SPAPR_": 7269,
      "FakeInput": 7270,
      "child_": 7271,
      "_CF": 7272,
      "queu": 7273,
      "avio_tell": 7274,
      "rfbClient": 7275,
      "400": 7276,
      "LK": 7277,
      "MC_": 7278,
      "MFI": 7279,
      "UM": 7280,
      "older": 7281,
      "ref_index": 7282,
      "full_": 7283,
      "DD": 7284,
      "ow": 7285,
      "uint16": 7286,
      "grp": 7287,
      "0F": 7288,
      "Ap": 7289,
      "Auto": 7290,
      "ibe": 7291,
      "actual_": 7292,
      "output_min": 7293,
      "needs": 7294,
      "gf_bs_write_": 7295,
      "adapter": 7296,
      "qemu_chr_fe_": 7297,
      "VC_": 7298,
      "]],": 7299,
      "horizont": 7300,
      "ifa": 7301,
      "node_id": 7302,
      "_protocol_": 7303,
      "f_b": 7304,
      "hflags": 7305,
      "_src_": 7306,
      "white": 7307,
      "START": 7308,
      "left_type": 7309,
      "DM": 7310,
      "_2": 7311,
      "_fr": 7312,
      "val8": 7313,
      "complex": 7314,
      "new_size": 7315,
      "md5": 7316,
      "INT64": 7317,
      "HeaderItem": 7318,
      "Print": 7319,
      "StructuredHeaderItem": 7320,
      "residu": 7321,
      "chn": 7322,
      "_position": 7323,
      "mutable": 7324,
      "_pair": 7325,
      "SD_": 7326,
      "263_": 7327,
      "nb_frames": 7328,
      "_PAGE_": 7329,
      "Over": 7330,
      "ti_": 7331,
      "RAW_": 7332,
      "rfbLog": 7333,
      "MULTI": 7334,
      "Allocate": 7335,
      "uwsgi_": 7336,
      "ALOGE": 7337,
      "returned": 7338,
      "av_cold": 7339,
      "_CONFIG_": 7340,
      "ans": 7341,
      "INT16": 7342,
      "yuv2rgb_": 7343,
      "rounding": 7344,
      "level_up": 7345,
      "Seg": 7346,
      "reinterpret_": 7347,
      "CHAN": 7348,
      "reinterpret_cast": 7349,
      "386": 7350,
      "GIT_": 7351,
      "b_stride": 7352,
      "_del": 7353,
      "session_": 7354,
      "CharData": 7355,
      "assert_true_": 7356,
      "Zer": 7357,
      "u1_": 7358,
      "strstr": 7359,
      "ut8": 7360,
      "_S_": 7361,
      "tcg": 7362,
      "_total": 7363,
      "TM": 7364,
      "elif": 7365,
      "d_len": 7366,
      "vqs": 7367,
      "waiting": 7368,
      "amage": 7369,
      "mpe": 7370,
      "_s16": 7371,
      "exce": 7372,
      "rgba": 7373,
      "FileName": 7374,
      "112": 7375,
      "qmp_": 7376,
      "dbg_ctx": 7377,
      "I_TYPE": 7378,
      "PE": 7379,
      "plen": 7380,
      "MMAND": 7381,
      "jpeg": 7382,
      "opus_": 7383,
      "nothing": 7384,
      "srcFormat": 7385,
      "float_": 7386,
      "MATROSKA_": 7387,
      "quad": 7388,
      "02X": 7389,
      "partial": 7390,
      "_insns": 7391,
      "EXTERNAL": 7392,
      "Sent": 7393,
      "c0": 7394,
      "fopen": 7395,
      "wt_": 7396,
      "_BACK": 7397,
      "xml_failure": 7398,
      "BZ_": 7399,
      "MI_": 7400,
      "nut": 7401,
      "ctts_": 7402,
      "ime_": 7403,
      "POLL": 7404,
      "USB_RE": 7405,
      "vmsd": 7406,
      "Xml": 7407,
      "flowi": 7408,
      "l1_size": 7409,
      "QDict": 7410,
      "tempor": 7411,
      "subtree": 7412,
      "Part": 7413,
      "_unref": 7414,
      "GpuMemory": 7415,
      "GPIO": 7416,
      "g_new0": 7417,
      "git_path_is": 7418,
      "git_path_isvalid": 7419,
      "Mix": 7420,
      "Use": 7421,
      "ww": 7422,
      "utc": 7423,
      "g_len": 7424,
      "power": 7425,
      "gdb_": 7426,
      "_FIX": 7427,
      "rtl8139": 7428,
      "BDRV_SECTOR_SIZE": 7429,
      "4PA": 7430,
      "tfm": 7431,
      "memsize_": 7432,
      "8x8_": 7433,
      "An": 7434,
      "asi": 7435,
      "_samp": 7436,
      "_options": 7437,
      "ccp": 7438,
      "avs": 7439,
      "assert_equal": 7440,
      "mutt_debug": 7441,
      "Mmx": 7442,
      "RIGHT": 7443,
      "p_data": 7444,
      "_prog": 7445,
      "tls": 7446,
      "finalize": 7447,
      "saved_": 7448,
      "floor_setup": 7449,
      "decomp": 7450,
      "ctype": 7451,
      "pix_": 7452,
      "expected_": 7453,
      "cp_": 7454,
      "tered": 7455,
      "ives": 7456,
      "XFREE": 7457,
      "LVREV_": 7458,
      "p3": 7459,
      "BUIL": 7460,
      "WIN32": 7461,
      "PixBuf": 7462,
      "analy": 7463,
      "_CIPHER": 7464,
      "_pdu": 7465,
      "parsing": 7466,
      "output_max": 7467,
      "qemu_log": 7468,
      "u_int32_t": 7469,
      "intra_matrix": 7470,
      "sha_info": 7471,
      "sljit_sw": 7472,
      "vLumFilterSize": 7473,
      "force": 7474,
      "0xb": 7475,
      "ENTS": 7476,
      "pthread_mutex_unlock": 7477,
      "get_ue_golomb": 7478,
      "Typ": 7479,
      "m1": 7480,
      "nk": 7481,
      "rad": 7482,
      "rdev": 7483,
      "cow2": 7484,
      "icBuffer": 7485,
      "ALU": 7486,
      "_types": 7487,
      "QUAN": 7488,
      "pred8x8": 7489,
      "quirk": 7490,
      "mpeg_": 7491,
      "kt": 7492,
      "coef_": 7493,
      "RESS_": 7494,
      "_movl": 7495,
      "kzalloc": 7496,
      "pix_fmts": 7497,
      "rcc": 7498,
      "Directory": 7499,
      "cl_assert_equal": 7500,
      "GUEST_": 7501,
      "cl_assert_equal_b": 7502,
      "fli": 7503,
      "qcow": 7504,
      "s_ctl_": 7505,
      "ltp": 7506,
      "MV_TYPE_": 7507,
      "Down": 7508,
      "av_strcasecmp": 7509,
      "cpu_fprintf": 7510,
      "src_size": 7511,
      "Encode": 7512,
      "_FAILED": 7513,
      "_scratch": 7514,
      "B0": 7515,
      "PV_": 7516,
      "psize": 7517,
      "lastIn": 7518,
      "SWAP": 7519,
      "qpc": 7520,
      "vreader_": 7521,
      "indic": 7522,
      "Be": 7523,
      "FW": 7524,
      "{{": 7525,
      "s_ref": 7526,
      "neigh": 7527,
      "T_FRA": 7528,
      "tswap32": 7529,
      ")==": 7530,
      "x00": 7531,
      "avg_": 7532,
      "get_le32": 7533,
      "_FOR": 7534,
      "hour": 7535,
      "pipe_cnt": 7536,
      "_CHECK": 7537,
      "happ": 7538,
      "try_": 7539,
      "scall": 7540,
      "_short": 7541,
      "MinFocal": 7542,
      "M_P": 7543,
      "remove_": 7544,
      "conds": 7545,
      "emon": 7546,
      "_SMALL": 7547,
      "isor": 7548,
      "word12": 7549,
      "capacity": 7550,
      "Delay": 7551,
      "LVREV": 7552,
      "DIT": 7553,
      "_1": 7554,
      "ia": 7555,
      "x8": 7556,
      "eng": 7557,
      "comedi": 7558,
      "dev_dbg": 7559,
      "low_delay": 7560,
      "av_realloc": 7561,
      "CTION": 7562,
      "hint": 7563,
      "16X": 7564,
      "BufferCount": 7565,
      "skipped": 7566,
      "LOCK_": 7567,
      "exit_program": 7568,
      "_limits": 7569,
      ")<<": 7570,
      "_pitch": 7571,
      "0x11": 7572,
      "ternal": 7573,
      "_STATIC": 7574,
      "DemuxContext": 7575,
      "encl_": 7576,
      "smit": 7577,
      "g_strdup_printf": 7578,
      "DISCARD_": 7579,
      "erase": 7580,
      "_cpu_": 7581,
      "handlers": 7582,
      "walk": 7583,
      "inv": 7584,
      "raise": 7585,
      "_FMT_": 7586,
      "float32": 7587,
      "AG": 7588,
      "arp": 7589,
      "RESU": 7590,
      "RTP": 7591,
      "total_size": 7592,
      "original": 7593,
      "ARE": 7594,
      "Space": 7595,
      "see": 7596,
      "_Pr": 7597,
      "be32_to_cpu": 7598,
      "emulated_edge": 7599,
      "09": 7600,
      "san": 7601,
      "seen": 7602,
      "started": 7603,
      "Register": 7604,
      "_SCSI": 7605,
      "_super": 7606,
      "black": 7607,
      "detected": 7608,
      "ACTIVE": 7609,
      "r4": 7610,
      "allocator": 7611,
      "commands": 7612,
      "ENDIAN": 7613,
      "cts": 7614,
      "under": 7615,
      "edit_": 7616,
      "ROW": 7617,
      "_thresh": 7618,
      "bgr": 7619,
      "cJSON": 7620,
      "ifname": 7621,
      "unable": 7622,
      "voke": 7623,
      "file_": 7624,
      "mismatch": 7625,
      "CONST_STR_": 7626,
      "hf": 7627,
      "_sg": 7628,
      "LOB": 7629,
      "ypass": 7630,
      "called": 7631,
      "out_size": 7632,
      "minus1": 7633,
      "cbpc": 7634,
      "VCARD": 7635,
      "isa": 7636,
      "endptr": 7637,
      "numb": 7638,
      "64_MAX": 7639,
      "_FLAGS": 7640,
      "tcg_gen_movi_tl": 7641,
      "O_RDWR": 7642,
      "clamped": 7643,
      "HD": 7644,
      "H263": 7645,
      "_off": 7646,
      "inp": 7647,
      "DET": 7648,
      "DIR_": 7649,
      "64_to_cpu": 7650,
      "layouts": 7651,
      "layout_map": 7652,
      "_sub_": 7653,
      "I2": 7654,
      "cing": 7655,
      "_fix": 7656,
      "')')": 7657,
      "backprop": 7658,
      "_decode_": 7659,
      "pmadd": 7660,
      "_PATH": 7661,
      "av_rescale_q": 7662,
      "FREE": 7663,
      "lsb": 7664,
      "src_stride": 7665,
      "_buffer_size": 7666,
      "step_": 7667,
      "PRED": 7668,
      "_PCI_": 7669,
      "side_data": 7670,
      "OPJ_U": 7671,
      "LAC": 7672,
      "Usage": 7673,
      "tre": 7674,
      "_PT_": 7675,
      "ITE": 7676,
      "bandno": 7677,
      "vtd_": 7678,
      "lcpy": 7679,
      "secs": 7680,
      "007": 7681,
      "THREAD": 7682,
      "vector_f": 7683,
      "sink": 7684,
      "TABLE_": 7685,
      "integer_": 7686,
      "adde": 7687,
      "'):": 7688,
      "0x07": 7689,
      "GF_ISOM_": 7690,
      "objects": 7691,
      "pending_": 7692,
      "sert": 7693,
      "max_size": 7694,
      "XMM_": 7695,
      "runc": 7696,
      "clean": 7697,
      "_single_": 7698,
      "kbd_": 7699,
      "opencl_": 7700,
      "picol": 7701,
      "maps": 7702,
      "--------------------------------": 7703,
      "GT": 7704,
      "av_log2": 7705,
      "SPON": 7706,
      "spin_lock_irq": 7707,
      "snd_ms": 7708,
      "!!(": 7709,
      "oring": 7710,
      "sist": 7711,
      "mpts": 7712,
      "etype": 7713,
      "live": 7714,
      "ToUV": 7715,
      "Power": 7716,
      "IGHT_": 7717,
      "registers": 7718,
      "emulated_edge_mc": 7719,
      "bx": 7720,
      "h_edge_pos": 7721,
      "ered": 7722,
      "rest": 7723,
      "_pop": 7724,
      "apply_": 7725,
      "bits_count": 7726,
      "properties": 7727,
      "ACT": 7728,
      "vChrFilterSize": 7729,
      "QTAILQ_FOREACH": 7730,
      "1Context": 7731,
      "EMU": 7732,
      "dead": 7733,
      "usec": 7734,
      "_height": 7735,
      "bS": 7736,
      "dcr": 7737,
      "scale_factor": 7738,
      "0x7f": 7739,
      "8210": 7740,
      "BitstreamRead": 7741,
      "PT_": 7742,
      "vnc": 7743,
      "sport": 7744,
      "srcW": 7745,
      "'.')": 7746,
      "ntp_parser": 7747,
      "Dev": 7748,
      "Serial": 7749,
      "hbitmap": 7750,
      "icount": 7751,
      "COUNT": 7752,
      "mode_": 7753,
      "encrypted": 7754,
      "TROL_": 7755,
      "**)&": 7756,
      "WEB": 7757,
      "right_": 7758,
      "calc": 7759,
      "steps": 7760,
      "NOT_FOUND": 7761,
      "radeon_": 7762,
      "instruction": 7763,
      "alt_": 7764,
      "saf": 7765,
      "FF_INPUT_BUFFER_PADDING_SIZE": 7766,
      "name_len": 7767,
      "Up": 7768,
      "wq": 7769,
      "External": 7770,
      "surface_": 7771,
      "v4l2": 7772,
      "lwc1": 7773,
      "constra": 7774,
      "KIN": 7775,
      "TW": 7776,
      "sdev": 7777,
      "_cla": 7778,
      "_bytes_": 7779,
      "DONE": 7780,
      "_tb": 7781,
      "FFALIGN": 7782,
      "ECTED": 7783,
      "requests": 7784,
      "0xFFFFFF": 7785,
      "ebx": 7786,
      "strtol": 7787,
      "Segment": 7788,
      "ALOG": 7789,
      "cdb": 7790,
      "l3": 7791,
      "lba": 7792,
      "wp": 7793,
      "seconds": 7794,
      "s_enabled": 7795,
      "_sge": 7796,
      "MAIN": 7797,
      "times": 7798,
      "pbc": 7799,
      "i2c_": 7800,
      "U32": 7801,
      "VE_": 7802,
      "bmd": 7803,
      "ff_thread": 7804,
      "_palette": 7805,
      "tries": 7806,
      "Coder": 7807,
      "qemu_irq": 7808,
      "50e": 7809,
      "ANDS": 7810,
      "cc_mask": 7811,
      "virt_": 7812,
      "VCARD78": 7813,
      "COP": 7814,
      "p_param": 7815,
      "add_jump": 7816,
      "ipher": 7817,
      "BOOL": 7818,
      "devs": 7819,
      "DO_": 7820,
      "nonce": 7821,
      "PTR_": 7822,
      "by_": 7823,
      "z0": 7824,
      "buf2": 7825,
      "iss": 7826,
      "__asm_": 7827,
      "cntl": 7828,
      "svq3": 7829,
      "__asm__": 7830,
      "qint32": 7831,
      "_diff": 7832,
      "DECREF": 7833,
      "tight": 7834,
      "unpack": 7835,
      "0x200": 7836,
      "sequence_": 7837,
      "fmt_ctx": 7838,
      "punpckl": 7839,
      "paddr": 7840,
      "sit": 7841,
      "let_": 7842,
      "arm_": 7843,
      "lib_": 7844,
      "vp56": 7845,
      "msix_": 7846,
      "_FEATURE_": 7847,
      "CONST_STR_LEN": 7848,
      "TIT": 7849,
      "t6": 7850,
      "get_be32": 7851,
      "SCORE_": 7852,
      "CP0_": 7853,
      "BAR": 7854,
      "intptr_t": 7855,
      "_fac": 7856,
      "outptr": 7857,
      "_TLB": 7858,
      "_split": 7859,
      "Long": 7860,
      "referen": 7861,
      "coming": 7862,
      "bounds": 7863,
      "><": 7864,
      "DL": 7865,
      "OT": 7866,
      "hz": 7867,
      "pse": 7868,
      "needs_": 7869,
      "DBG_": 7870,
      "HOST": 7871,
      "rtas_": 7872,
      "branch": 7873,
      "handshake": 7874,
      "vcard_": 7875,
      "l2tp_": 7876,
      "Scalar": 7877,
      "_TRANSP": 7878,
      "integer_lstm": 7879,
      "xt": 7880,
      "REG_b": 7881,
      "_cpus": 7882,
      "mc_s": 7883,
      "Timer": 7884,
      "security": 7885,
      "vram": 7886,
      "xmm": 7887,
      "zendl": 7888,
      "_fil": 7889,
      "_sz": 7890,
      "adding": 7891,
      "LEAR": 7892,
      "vmxnet": 7893,
      "zendlval": 7894,
      "YS": 7895,
      "wd_": 7896,
      "ino": 7897,
      "alg_": 7898,
      "concat": 7899,
      "good": 7900,
      "put_symbol": 7901,
      "script": 7902,
      "lowest": 7903,
      "cil": 7904,
      "g2": 7905,
      "pub": 7906,
      "until": 7907,
      "_FREE": 7908,
      "DCTELEM": 7909,
      "nal_unit_": 7910,
      "presentation": 7911,
      "intra4x4_pred_mode": 7912,
      "gop": 7913,
      "login": 7914,
      "notifi": 7915,
      "quantum": 7916,
      "Chars": 7917,
      "Sequ": 7918,
      "QXL_": 7919,
      "them": 7920,
      "exy": 7921,
      "scl": 7922,
      "contents": 7923,
      "390_": 7924,
      "C7": 7925,
      "IFI": 7926,
      "UAL": 7927,
      "pu1_": 7928,
      "_opts": 7929,
      "AV_SAMPLE_FMT_S": 7930,
      "RST": 7931,
      "detach": 7932,
      "lea": 7933,
      "opc_": 7934,
      "disp": 7935,
      "syslog": 7936,
      "ELEM": 7937,
      "Target": 7938,
      "dtd": 7939,
      "ii": 7940,
      "REG_d": 7941,
      "t_ctx": 7942,
      "leak": 7943,
      "iocb": 7944,
      "OpKernel": 7945,
      "cipher_": 7946,
      "Weight": 7947,
      "_fields": 7948,
      "C5": 7949,
      "slots": 7950,
      "rection": 7951,
      "sth": 7952,
      "dev_info": 7953,
      "_frame_num": 7954,
      "aes": 7955,
      "get_bits_left": 7956,
      "BF": 7957,
      "DST": 7958,
      "f0": 7959,
      "i8": 7960,
      "mBuffer": 7961,
      "p_buf": 7962,
      "PRINT_": 7963,
      "_frame_rate": 7964,
      "quant_matrix": 7965,
      "relat": 7966,
      "sip": 7967,
      "idc": 7968,
      "unix": 7969,
      "datablock": 7970,
      "of_": 7971,
      "safe": 7972,
      "_request_sample": 7973,
      "compatible": 7974,
      "avpriv_request_sample": 7975,
      "BIG": 7976,
      "l0": 7977,
      "pctx": 7978,
      "forward": 7979,
      "Pixels": 7980,
      "32_MAX": 7981,
      "IEEE": 7982,
      "hw_": 7983,
      "Pointer": 7984,
      "UNUSED_P": 7985,
      "IQ": 7986,
      "ict_": 7987,
      "icro": 7988,
      "_TE": 7989,
      "LOG_ERR": 7990,
      "quant_table": 7991,
      "AV_PICTURE_TYPE_B": 7992,
      "\"*": 7993,
      "VO": 7994,
      "hlen": 7995,
      "avs_": 7996,
      "_server": 7997,
      "AVDISCARD_": 7998,
      "char_u": 7999,
      "_COMM": 8000,
      "tiles": 8001,
      "_STREAM_": 8002,
      "REGISTER": 8003,
      "grammar": 8004,
      "src_offset_x": 8005,
      "AV_WN4PA": 8006,
      "(++": 8007,
      "TF": 8008,
      "[*": 8009,
      "jif": 8010,
      "oy_": 8011,
      "bject": 8012,
      "Coeff": 8013,
      "1_2": 8014,
      "NORMAL": 8015,
      "TTypes": 8016,
      "pix2": 8017,
      "indx": 8018,
      "NO_ERROR": 8019,
      "IOCB": 8020,
      "tcg_temp_free_i32": 8021,
      "ins_": 8022,
      "LIBSS": 8023,
      "gen_helper": 8024,
      "pthread_cond_": 8025,
      "CCP": 8026,
      "chset": 8027,
      "_pu": 8028,
      "linux": 8029,
      "share": 8030,
      "archive_entry": 8031,
      "src_offset_y": 8032,
      "stored": 8033,
      "AVPROBE_": 8034,
      "room": 8035,
      "_realloc": 8036,
      "ROUND": 8037,
      "IPMI_": 8038,
      "configure": 8039,
      "QEMUFile": 8040,
      "rtl8xxxu_read": 8041,
      "broadcast": 8042,
      "CG": 8043,
      "_next": 8044,
      "inHeader": 8045,
      "16BITS": 8046,
      "num_elements": 8047,
      "TfLiteTensor": 8048,
      "XML_Parser": 8049,
      "_rectangle": 8050,
      "NV_": 8051,
      "b4": 8052,
      "fab": 8053,
      "h2": 8054,
      "ur128": 8055,
      "MAC_": 8056,
      "<<(": 8057,
      "shpc": 8058,
      "_block_size": 8059,
      "ebur128": 8060,
      "cqe": 8061,
      "advance": 8062,
      "Wa": 8063,
      "ec_": 8064,
      "scope": 8065,
      "d_name": 8066,
      "TEE_": 8067,
      "_tlb": 8068,
      "CTRL_": 8069,
      "\"\");": 8070,
      "this_": 8071,
      "0xa": 8072,
      "rength": 8073,
      "cpu_T": 8074,
      "pixel4": 8075,
      "BPF": 8076,
      "()))": 8077,
      "Pack": 8078,
      "uval": 8079,
      "sps_": 8080,
      "UNLOCK": 8081,
      "5864_": 8082,
      "VENDOR_": 8083,
      "pmaddwd": 8084,
      "MR": 8085,
      "_pp": 8086,
      "_fp": 8087,
      "ssl_": 8088,
      "MAX_P": 8089,
      "Parsing": 8090,
      "_mem_": 8091,
      "private_data_ptr": 8092,
      "_indices": 8093,
      "'\"": 8094,
      "found_": 8095,
      "entic": 8096,
      "enable_": 8097,
      "air": 8098,
      "nd_": 8099,
      "v8": 8100,
      "aran": 8101,
      "addr_reg": 8102,
      "uves": 8103,
      "firm": 8104,
      "0x80000": 8105,
      "since": 8106,
      "issing": 8107,
      "UPNP": 8108,
      "ntohl": 8109,
      "family": 8110,
      "tctx": 8111,
      "av_pix": 8112,
      "exact": 8113,
      "av_opt_": 8114,
      "_table_index": 8115,
      "THAT": 8116,
      ">(),": 8117,
      "avio_printf": 8118,
      "288": 8119,
      "MaxFocal": 8120,
      "cpc": 8121,
      "dxy": 8122,
      "icount_": 8123,
      "ic_": 8124,
      "addrlen": 8125,
      "memory_": 8126,
      "Record": 8127,
      "mtp_": 8128,
      "PASS": 8129,
      "_scantable": 8130,
      "url_ftell": 8131,
      "IPV6": 8132,
      "]==": 8133,
      "b_frames": 8134,
      "deca": 8135,
      "SOCKET_": 8136,
      "layer_info": 8137,
      "PATH_": 8138,
      "arg_val": 8139,
      "None": 8140,
      "cirr": 8141,
      "i4": 8142,
      "nan": 8143,
      "uring": 8144,
      "ERM": 8145,
      "CHROMA": 8146,
      "bandwidth": 8147,
      "metho": 8148,
      "PRIu32": 8149,
      "pboard": 8150,
      "p_param_values": 8151,
      "exynos4210": 8152,
      "Wait": 8153,
      "SZ": 8154,
      "_fs": 8155,
      "_bd": 8156,
      "tap_": 8157,
      "565": 8158,
      "applet": 8159,
      "extract32": 8160,
      "pI": 8161,
      "pT": 8162,
      "pExpr": 8163,
      "anon": 8164,
      "mag": 8165,
      "1646": 8166,
      "ass_": 8167,
      "_reco": 8168,
      "_TIM": 8169,
      "Convert": 8170,
      "_delete": 8171,
      "VIRTUAL": 8172,
      "Linux": 8173,
      "GOTO": 8174,
      "integer_lstm_param": 8175,
      "All": 8176,
      "_AL": 8177,
      "fg_": 8178,
      "jsl": 8179,
      "exth": 8180,
      "SCS": 8181,
      "init_vlc": 8182,
      "tcg_gen_sh": 8183,
      "mp_int": 8184,
      "Crypto": 8185,
      "EVP_CIPHER": 8186,
      "coder_": 8187,
      "_k": 8188,
      "damage": 8189,
      "hp": 8190,
      "reorder": 8191,
      "ios": 8192,
      "LOW": 8193,
      "ipaddr_string": 8194,
      "ENCOD": 8195,
      "_opaque": 8196,
      "555": 8197,
      "READY": 8198,
      "DEFAULT": 8199,
      "LABEL": 8200,
      "sibl": 8201,
      "mediate": 8202,
      "context_count": 8203,
      "cris_cc_mask": 8204,
      "frequency": 8205,
      "_ref_": 8206,
      "ighe": 8207,
      "reserve": 8208,
      "_cmp": 8209,
      "_CALL": 8210,
      "ipt": 8211,
      "secondary": 8212,
      "1ULL": 8213,
      "FOREACH": 8214,
      "GRA": 8215,
      ");\\": 8216,
      "ilder": 8217,
      "GetPixel": 8218,
      "input_size": 8219,
      "APE": 8220,
      "_symbol": 8221,
      "41": 8222,
      "800": 8223,
      "_me": 8224,
      "STEP": 8225,
      "()),": 8226,
      "mpeg4_": 8227,
      "BLK_": 8228,
      "PortIndex": 8229,
      "Delta": 8230,
      "fp_status": 8231,
      "vector_fmul": 8232,
      "sptr": 8233,
      "INTFLOAT": 8234,
      "minimum": 8235,
      "257": 8236,
      "Disas": 8237,
      "_resol": 8238,
      "cqspi": 8239,
      "ims_pc": 8240,
      "mdct_": 8241,
      "urb_": 8242,
      "_found": 8243,
      "x_offset": 8244,
      "PSW_": 8245,
      "qedi_ep": 8246,
      "EXTRACT_16BITS": 8247,
      "2f": 8248,
      "_image": 8249,
      "have_": 8250,
      "itt": 8251,
      "shape_": 8252,
      "_threshold": 8253,
      "xenfb": 8254,
      "json_": 8255,
      "_box": 8256,
      "happen": 8257,
      "ahci": 8258,
      "idct": 8259,
      "igz": 8260,
      "chroma_h": 8261,
      "HEVC_": 8262,
      "pass_": 8263,
      "SDH": 8264,
      "vertical": 8265,
      "numeric": 8266,
      "hx": 8267,
      "uct_": 8268,
      "iformat": 8269,
      "namespace": 8270,
      "writing": 8271,
      "MetaData": 8272,
      "loct": 8273,
      "_recv": 8274,
      "_CLA": 8275,
      "srcSlice": 8276,
      "skip_": 8277,
      "_CHAR": 8278,
      "attemp": 8279,
      "transpa": 8280,
      "fixed_": 8281,
      "XEN": 8282,
      "fake_": 8283,
      "ATOM": 8284,
      "chrToYV12": 8285,
      "_client": 8286,
      "bink": 8287,
      "BOX": 8288,
      "qxl_": 8289,
      "iucv": 8290,
      "Sequence": 8291,
      "cirrus_": 8292,
      "Swap": 8293,
      "kbd": 8294,
      "ctb": 8295,
      "strcat": 8296,
      "get_symbol": 8297,
      "_Con": 8298,
      "_FUN": 8299,
      "string_": 8300,
      "tcg_target_": 8301,
      "PV_FAIL": 8302,
      "QPDFO": 8303,
      "GLOB": 8304,
      "n0": 8305,
      "ont_": 8306,
      "export_": 8307,
      "INFO_": 8308,
      "ehci": 8309,
      "_target": 8310,
      "ff_t": 8311,
      "_rgb": 8312,
      "realm": 8313,
      "_FIFO": 8314,
      "framerate": 8315,
      "pulse": 8316,
      "NF": 8317,
      "T2": 8318,
      "hub": 8319,
      "xattr": 8320,
      "xmm0": 8321,
      "entrie": 8322,
      "_STACK": 8323,
      "connector": 8324,
      "modified": 8325,
      "%%%%%%%%": 8326,
      "strncasecmp": 8327,
      "VIO": 8328,
      "niov": 8329,
      "405": 8330,
      "OR_GOTO": 8331,
      "vendor_id": 8332,
      "OPJ_UINT32": 8333,
      "10000": 8334,
      "mS": 8335,
      "zigz": 8336,
      "SKIP_": 8337,
      "ENOTSUP": 8338,
      "_process_": 8339,
      "448": 8340,
      "Throw": 8341,
      "CODEC_ID_PC": 8342,
      "Cfg": 8343,
      "hbs": 8344,
      "rol": 8345,
      "ove_": 8346,
      "DMA_": 8347,
      "cg": 8348,
      "in_buffer": 8349,
      "list_lock": 8350,
      "gf_isom_": 8351,
      "chapter": 8352,
      "h0": 8353,
      "sive_": 8354,
      "compile": 8355,
      "BUG": 8356,
      "temp1": 8357,
      "uvsrc_y": 8358,
      "inflate": 8359,
      "serial_": 8360,
      "UNT_": 8361,
      "COLOR": 8362,
      "Feature": 8363,
      "SDHC_": 8364,
      "locty": 8365,
      "_target_": 8366,
      "0x30": 8367,
      "ROUN": 8368,
      "_cursor": 8369,
      "register_ioport_": 8370,
      "license": 8371,
      "lseek": 8372,
      "mn": 8373,
      "vide": 8374,
      "Detect": 8375,
      "row7": 8376,
      "_bitmask": 8377,
      "dst_stride": 8378,
      "htons": 8379,
      "132": 8380,
      "GRE": 8381,
      "ject_": 8382,
      "ount": 8383,
      "GetAttr": 8384,
      "DEVICE_CLASS": 8385,
      "qc2": 8386,
      "pthread_mutex_lock": 8387,
      "evalu": 8388,
      "_subregion": 8389,
      "IMAGE_": 8390,
      "av_pix_fmt_": 8391,
      "\"#": 8392,
      "\"(%": 8393,
      "asy": 8394,
      "MOB": 8395,
      "macaddr": 8396,
      "Sing": 8397,
      "ctr": 8398,
      "itation": 8399,
      "_has_": 8400,
      "_limit": 8401,
      "l2tp": 8402,
      "negative": 8403,
      "_status": 8404,
      "name_size": 8405,
      "EVENT": 8406,
      "obmc": 8407,
      "rec_": 8408,
      "iovec_": 8409,
      "Compare": 8410,
      "INDEX_op_": 8411,
      "es_server": 8412,
      "sdram": 8413,
      "EDGE_": 8414,
      "qc3": 8415,
      "spin_lock_irqsave": 8416,
      "mg_": 8417,
      "xvid_": 8418,
      "statement": 8419,
      "public": 8420,
      "VMXNET3": 8421,
      "ea_": 8422,
      "dog": 8423,
      "_right": 8424,
      "calc_": 8425,
      "MEMORY_": 8426,
      "ENOSYS": 8427,
      "IGN": 8428,
      "contains": 8429,
      "Transl": 8430,
      "chroma_format_idc": 8431,
      "AVPROBE_SCORE_": 8432,
      "NZ": 8433,
      "_cc": 8434,
      "SIG_": 8435,
      "input_files": 8436,
      "callbacks": 8437,
      "Section": 8438,
      "assoc_array": 8439,
      "MV_FWD_": 8440,
      "EF_": 8441,
      "m_p": 8442,
      "elt_": 8443,
      "outHeader": 8444,
      "ritical": 8445,
      "author": 8446,
      "ADDRESS_": 8447,
      "probe_": 8448,
      "encryption": 8449,
      "ias": 8450,
      "ni_": 8451,
      "av_packet_": 8452,
      "ween": 8453,
      "ENODEV": 8454,
      "highe": 8455,
      "sdp": 8456,
      "_tpg": 8457,
      "the_": 8458,
      "ement": 8459,
      "NELS": 8460,
      "ELD_": 8461,
      "_channels": 8462,
      "_exit": 8463,
      "detail": 8464,
      "_record": 8465,
      "srcY": 8466,
      "uvoff": 8467,
      "DPB": 8468,
      "cycle": 8469,
      "qc4": 8470,
      "excitation": 8471,
      "qc1": 8472,
      "alog": 8473,
      "modrm": 8474,
      "IDCT": 8475,
      "REG_c": 8476,
      "MPEG2": 8477,
      "huffman": 8478,
      "ebml_read_": 8479,
      "font": 8480,
      "x3": 8481,
      "ink": 8482,
      "list_for_each": 8483,
      "different": 8484,
      "_process": 8485,
      "Point": 8486,
      "_fragments": 8487,
      "qio_channel_": 8488,
      "CharDriverState": 8489,
      "DT": 8490,
      "Parameters": 8491,
      "DOUB": 8492,
      "maining": 8493,
      "jiffi": 8494,
      "016": 8495,
      "J_": 8496,
      "RLE": 8497,
      "jbd_": 8498,
      "que_": 8499,
      "FILL": 8500,
      "_U_": 8501,
      "currVop": 8502,
      "top_xy": 8503,
      "Zero": 8504,
      "Vnc": 8505,
      "ni": 8506,
      "uite": 8507,
      "_SK": 8508,
      "frame_count": 8509,
      "EDGE": 8510,
      "pll": 8511,
      "omap_gp": 8512,
      "Layer": 8513,
      "Cmd_": 8514,
      "mCore": 8515,
      "vptr": 8516,
      "_duration": 8517,
      "_files": 8518,
      "VP8": 8519,
      "fd_handler": 8520,
      "SVGA": 8521,
      "_io": 8522,
      "dpy": 8523,
      "cover": 8524,
      "_sse": 8525,
      "iothread": 8526,
      "portIndex": 8527,
      "scrypt_": 8528,
      "table_buf_": 8529,
      "FLOW": 8530,
      "MLX": 8531,
      "aut": 8532,
      "xhci": 8533,
      "include": 8534,
      "DED": 8535,
      "most": 8536,
      "quit": 8537,
      "AP4": 8538,
      "insn_len": 8539,
      "_pict": 8540,
      "buffer_add32": 8541,
      "Usr": 8542,
      "tlen": 8543,
      "busy": 8544,
      "ptrs": 8545,
      "uvsrc_x": 8546,
      "PAGE": 8547,
      "samplesB": 8548,
      "TRACE_": 8549,
      "requires": 8550,
      "CUDA": 8551,
      "ieee80211": 8552,
      "vui": 8553,
      "onal": 8554,
      "_crc": 8555,
      "tag_": 8556,
      "clr": 8557,
      "realize": 8558,
      "context_t": 8559,
      "reslevelno": 8560,
      "_SLICE": 8561,
      ":\"": 8562,
      "CR_": 8563,
      "peer_": 8564,
      "_sr": 8565,
      "_desc_": 8566,
      "IS_DIR": 8567,
      "generate_": 8568,
      "fidp": 8569,
      "_cancel": 8570,
      "VCARD7816": 8571,
      "_queue": 8572,
      "above_": 8573,
      "MATCH": 8574,
      "error_free": 8575,
      "brary": 8576,
      "BUFFER_SIZE": 8577,
      "INTERF": 8578,
      "relative": 8579,
      "FLT": 8580,
      "hard": 8581,
      "jfields": 8582,
      "wm": 8583,
      "idsp": 8584,
      "nb_clusters": 8585,
      "ch_lock": 8586,
      "QUEST_": 8587,
      "Blue": 8588,
      "jiffies": 8589,
      "QDECREF": 8590,
      "_e": 8591,
      "devfn": 8592,
      "Description": 8593,
      "job_": 8594,
      "ENTER": 8595,
      "8X8": 8596,
      "blob": 8597,
      "tis": 8598,
      "orm_": 8599,
      "mooth": 8600,
      "246": 8601,
      "_prim": 8602,
      "Builtin": 8603,
      "_STAT_": 8604,
      "ReadBlob": 8605,
      "paddd": 8606,
      "LIBRAW_": 8607,
      "WINDOW": 8608,
      "standard": 8609,
      "_CFG_": 8610,
      "lh": 8611,
      "xch": 8612,
      "export": 8613,
      "0x90": 8614,
      "DEV_": 8615,
      "put_bits_count": 8616,
      "scaler": 8617,
      "NameValue": 8618,
      "_CONFIG": 8619,
      "TSK": 8620,
      "timing": 8621,
      "mt76": 8622,
      "=%\"": 8623,
      "cpu_abort": 8624,
      "02d": 8625,
      "bytestream2_put_": 8626,
      "urls": 8627,
      "cpu_to_be64": 8628,
      "queued": 8629,
      "'?": 8630,
      "car": 8631,
      "td_": 8632,
      "force_": 8633,
      "srcV": 8634,
      "qdev_get_": 8635,
      "EXIT_FAILURE": 8636,
      "576": 8637,
      "BY": 8638,
      "IL_": 8639,
      "LPC_": 8640,
      "Screen": 8641,
      "bund": 8642,
      "s390": 8643,
      "adj": 8644,
      "img_": 8645,
      "float64": 8646,
      "ff_vp": 8647,
      "l2_offset": 8648,
      "HANDLE": 8649,
      "Ctxt": 8650,
      "composition": 8651,
      "weechat": 8652,
      "Success": 8653,
      "ines": 8654,
      "G_IO_": 8655,
      "_TLS": 8656,
      "usted": 8657,
      "src_reg": 8658,
      "version_id": 8659,
      "\\\"\",": 8660,
      "delta_": 8661,
      "ASSERT_OK": 8662,
      "Now": 8663,
      "virtio_gpu_": 8664,
      "snapshot": 8665,
      "VERIFY": 8666,
      "did": 8667,
      "_BASE_": 8668,
      "import_": 8669,
      "EFFECT_": 8670,
      "Sparse": 8671,
      "cmsg": 8672,
      "hba": 8673,
      "_tree_": 8674,
      "empty_": 8675,
      "_snap": 8676,
      "sasl": 8677,
      "Clear": 8678,
      "Dyn": 8679,
      "slt": 8680,
      "ermin": 8681,
      "RESET": 8682,
      "RESPON": 8683,
      "they": 8684,
      "input1": 8685,
      "OUT_OF_": 8686,
      "bswap32s": 8687,
      "MSPACK_ERR_": 8688,
      "Gue": 8689,
      "Session": 8690,
      "hd_": 8691,
      "ohci": 8692,
      "t7": 8693,
      "mtu": 8694,
      "llx": 8695,
      "Jpeg2000": 8696,
      "WTELEM": 8697,
      "IDWTELEM": 8698,
      "pixa": 8699,
      "THO": 8700,
      "device_name": 8701,
      "yy164": 8702,
      "file_index": 8703,
      "NumElements": 8704,
      "Try": 8705,
      "sprite_ref": 8706,
      "allel": 8707,
      "cases": 8708,
      "preset": 8709,
      "num_channels": 8710,
      "Manager": 8711,
      "pTcoef": 8712,
      "ga_": 8713,
      "qed_": 8714,
      "s_out": 8715,
      "(\"[": 8716,
      "sparse": 8717,
      "ENSE_": 8718,
      "cpu_single_": 8719,
      "w_ctx": 8720,
      "shot_": 8721,
      "NGLE": 8722,
      "mpeg4": 8723,
      "EXPECT_CALL": 8724,
      "LIBXS": 8725,
      "implement": 8726,
      "QLIST_FOREACH": 8727,
      "nested": 8728,
      "lav": 8729,
      "part_": 8730,
      "ITH_": 8731,
      "PCState": 8732,
      "THRO": 8733,
      "src_linesize": 8734,
      "GBRP": 8735,
      "_peek": 8736,
      "EXTRA": 8737,
      "ULONG": 8738,
      "gt": 8739,
      "m5": 8740,
      "entity_": 8741,
      "current_frame": 8742,
      "VIDEO_": 8743,
      "_PCI": 8744,
      "NodeDef": 8745,
      "Mapping": 8746,
      "means": 8747,
      "macroblock": 8748,
      "GetTensorData": 8749,
      "vmd": 8750,
      "remov": 8751,
      "YYCTYPE": 8752,
      "_data_size": 8753,
      "ath10": 8754,
      "lerate": 8755,
      "APIC": 8756,
      "_clusters": 8757,
      ">().": 8758,
      "YU": 8759,
      "144": 8760,
      "Align": 8761,
      "cur_drv": 8762,
      "cmd_q": 8763,
      "Short": 8764,
      "QXL": 8765,
      "EVP_CIPHER_CTX_": 8766,
      "GUID": 8767,
      "WE": 8768,
      "]<<": 8769,
      "card_": 8770,
      "hid_": 8771,
      "chk": 8772,
      "_meta": 8773,
      "last_frame": 8774,
      "bytes_per": 8775,
      "generate": 8776,
      "ARCH_": 8777,
      "av_clip_pixel": 8778,
      "LPC_ORDER": 8779,
      "know": 8780,
      "l_t": 8781,
      "psw": 8782,
      "godb": 8783,
      "ref2": 8784,
      "test_data": 8785,
      "mrb_": 8786,
      "bs_num_env": 8787,
      "_CTRL_": 8788,
      "arangodb": 8789,
      "RE_": 8790,
      "View": 8791,
      "day": 8792,
      "ih264": 8793,
      "_msg_": 8794,
      "_cid": 8795,
      "MANGLE": 8796,
      "initr": 8797,
      "input_picture": 8798,
      "_skb": 8799,
      "stead": 8800,
      "quired": 8801,
      "SOCK_": 8802,
      "stl_p": 8803,
      "num_bytes": 8804,
      "dc_scale": 8805,
      "pper": 8806,
      "_STORE_": 8807,
      "fill_": 8808,
      "boundary": 8809,
      "exists": 8810,
      "_TRANSPORT_": 8811,
      "cpu_single_env": 8812,
      "JK": 8813,
      "soft": 8814,
      "currently": 8815,
      "Compute": 8816,
      "BPF_ALU": 8817,
      "bmc_": 8818,
      "ASYNC": 8819,
      "TIOC": 8820,
      "Us": 8821,
      "every": 8822,
      "s3": 8823,
      "lot_": 8824,
      "height_": 8825,
      "iv_size": 8826,
      "ac3": 8827,
      "link_": 8828,
      "_profile": 8829,
      "Env": 8830,
      "GpuComplex": 8831,
      "gf_filter_pck": 8832,
      "Ctrl": 8833,
      "vbuf": 8834,
      "asci": 8835,
      "pcr": 8836,
      "PIX_FMT_YUV420P": 8837,
      "MMX2": 8838,
      "BA": 8839,
      "Ok": 8840,
      "fscrypt_": 8841,
      "qpci_": 8842,
      "xb": 8843,
      "retr": 8844,
      "_band_": 8845,
      "TRAN": 8846,
      "strides": 8847,
      "Common": 8848,
      "ordered_": 8849,
      "g_test_add_func": 8850,
      "OM_": 8851,
      "nat": 8852,
      "replace": 8853,
      "_branch": 8854,
      "AV_WL": 8855,
      "rgba_": 8856,
      "vec_merge": 8857,
      "OBJECT_": 8858,
      "address_space_": 8859,
      "I1": 8860,
      "dv_": 8861,
      "_slot": 8862,
      "ull_": 8863,
      "AVFilterBufferRef": 8864,
      "yuv2rgb": 8865,
      "tlb_flush": 8866,
      "utf8": 8867,
      "vec_mergeh": 8868,
      "AIOCB": 8869,
      "DSP": 8870,
      "d_info": 8871,
      "target_sig": 8872,
      "gray": 8873,
      "topr": 8874,
      "near": 8875,
      "ENCRYP": 8876,
      "proc_": 8877,
      "LEFT_": 8878,
      "DIV": 8879,
      "RAM_": 8880,
      "intern": 8881,
      "Query": 8882,
      "Single": 8883,
      "*));": 8884,
      "012": 8885,
      "_fis": 8886,
      "_sync_": 8887,
      "code_ptr": 8888,
      "bredir": 8889,
      "uint64": 8890,
      "usbredir": 8891,
      "maxval": 8892,
      "later": 8893,
      "H264_": 8894,
      "NDPI_PROTOCOL_ACCEP": 8895,
      "Unicode": 8896,
      "NDPI_PROTOCOL_ACCEPTABLE": 8897,
      "TURE": 8898,
      "uic": 8899,
      "yle": 8900,
      "assum": 8901,
      "lineno": 8902,
      "boo": 8903,
      "BufIndex": 8904,
      "Compression": 8905,
      "AUDIO_": 8906,
      "tcg_temp_new_": 8907,
      "qht_": 8908,
      "TER_": 8909,
      "primary": 8910,
      "backtracks": 8911,
      "crypted": 8912,
      "XML_SetUserData": 8913,
      "Guest": 8914,
      ";\\": 8915,
      "WOL": 8916,
      "ric": 8917,
      "32F": 8918,
      "aspect": 8919,
      "ff_set_": 8920,
      "sgl": 8921,
      "optlen": 8922,
      "_fdt_": 8923,
      "qemu_get_be32s": 8924,
      "WOLF": 8925,
      "GA_": 8926,
      "WD": 8927,
      "a4": 8928,
      "msi_": 8929,
      "allen": 8930,
      "_SUPPOR": 8931,
      "_rec": 8932,
      "CPUP": 8933,
      "usb_host_": 8934,
      "log_idx": 8935,
      "REGISTER_DECODER": 8936,
      "TARGET_NR": 8937,
      "punpcklbw": 8938,
      "1b": 8939,
      "salt": 8940,
      "report_": 8941,
      "prim": 8942,
      "excp": 8943,
      "outpicref": 8944,
      "(!*": 8945,
      "AV_LOG_VERBOSE": 8946,
      "170": 8947,
      "rfbi": 8948,
      "_PROFILE_": 8949,
      "_CHANNELS": 8950,
      "reverse": 8951,
      "never": 8952,
      "usb_ctx": 8953,
      "Ab": 8954,
      "Sony": 8955,
      "SUPPORTED": 8956,
      "assert_true_rule": 8957,
      "fall": 8958,
      "nsec": 8959,
      "_F_": 8960,
      "_TX_": 8961,
      "137": 8962,
      "cmdline": 8963,
      "MIN_": 8964,
      "rfbEncoding": 8965,
      "transform_": 8966,
      "QUEUE": 8967,
      "Initialize": 8968,
      "_bits_long": 8969,
      "Type_": 8970,
      "ds_get_": 8971,
      "na": 8972,
      "_fra": 8973,
      "stroy_": 8974,
      "0x14": 8975,
      "AVCOL": 8976,
      "SLJIT_SUB": 8977,
      "pagesize": 8978,
      "regions": 8979,
      "clock_": 8980,
      "ubuf": 8981,
      "scen": 8982,
      "keycode": 8983,
      "ndir": 8984,
      "_tls_": 8985,
      "PCI_VENDOR_": 8986,
      "_CODEC": 8987,
      "nio": 8988,
      "_sav": 8989,
      "drive_": 8990,
      "heads": 8991,
      "ation_": 8992,
      "below": 8993,
      "yy167": 8994,
      "Completion": 8995,
      "vorbis_": 8996,
      "CL_": 8997,
      "bcd": 8998,
      "sect_": 8999,
      "av_new": 9000,
      "virtio_net_": 9001,
      "cur_pic_ptr": 9002,
      "between": 9003,
      "ND_TCHECK2": 9004,
      "_libssh": 9005,
      "resource_": 9006,
      "uple": 9007,
      "GF_LOG": 9008,
      "RANGE_": 9009,
      "_inputs": 9010,
      "UNIT_WIDTH": 9011,
      "PCRE2_CODE_": 9012,
      "PTR_ERR": 9013,
      "PCRE2_CODE_UNIT_WIDTH": 9014,
      "ENCE": 9015,
      "framesize": 9016,
      "CPUS": 9017,
      "_tables": 9018,
      "frame_rate_": 9019,
      "media_": 9020,
      "DISABLE": 9021,
      "url_fskip": 9022,
      "MmxFilter": 9023,
      "qnum": 9024,
      "tun": 9025,
      "ub_": 9026,
      "z1": 9027,
      "METHO": 9028,
      "error_status": 9029,
      "mlx5": 9030,
      "general": 9031,
      "HTTP_": 9032,
      "_socket": 9033,
      "CurFocal": 9034,
      "UNICODE": 9035,
      "pts_info": 9036,
      "SQL_DESC_": 9037,
      "CPUPPCState": 9038,
      "ws_": 9039,
      "instr": 9040,
      "_tx_": 9041,
      "uncompressed_": 9042,
      "tract": 9043,
      "both": 9044,
      "slave": 9045,
      "physical": 9046,
      "AMPLES": 9047,
      "4x": 9048,
      "PACK": 9049,
      "ivd_": 9050,
      "file_size": 9051,
      "_l1": 9052,
      "\").": 9053,
      "invalidate": 9054,
      "SrcY": 9055,
      "sctp": 9056,
      "Flat": 9057,
      "Mux": 9058,
      "denom": 9059,
      "eme": 9060,
      "RRR": 9061,
      "CODEC_FLAG_GRAY": 9062,
      "DO_ROUND": 9063,
      "BT": 9064,
      "CAB": 9065,
      "SF": 9066,
      "mquant": 9067,
      "mpu": 9068,
      "ioapic": 9069,
      "_view": 9070,
      "MIX": 9071,
      "tcg_out_mov": 9072,
      "va_list": 9073,
      "url_fseek": 9074,
      "Pic": 9075,
      "Syn": 9076,
      "]-": 9077,
      "f_f": 9078,
      "instead": 9079,
      "_dup": 9080,
      "compute_": 9081,
      "EBUSY": 9082,
      "fabs": 9083,
      "lead": 9084,
      "AC3": 9085,
      "extra_": 9086,
      "usb_mtp_": 9087,
      "slice_count": 9088,
      "bytestream2_get_be32": 9089,
      "gnition": 9090,
      "MALLOC": 9091,
      "_FIXED": 9092,
      "(~": 9093,
      "Mon": 9094,
      "fctx": 9095,
      "f64": 9096,
      "led_": 9097,
      "_pow": 9098,
      "expon": 9099,
      "PerPixel": 9100,
      "HERE": 9101,
      "hel": 9102,
      "rege": 9103,
      "recurrent_": 9104,
      "PLY": 9105,
      "VP56_FRAME_": 9106,
      "residue": 9107,
      "icast": 9108,
      "SEC": 9109,
      "AD_": 9110,
      "Response": 9111,
      "qemu_iovec_": 9112,
      "funcs": 9113,
      "Static": 9114,
      "boot_device": 9115,
      "vp56_": 9116,
      "GD_": 9117,
      "c_ptr": 9118,
      "pReg": 9119,
      "ins": 9120,
      "strength": 9121,
      "addrs": 9122,
      "IDCT_": 9123,
      "qemu_fdt_": 9124,
      "MMCO": 9125,
      "Constant": 9126,
      "Save": 9127,
      "ttp": 9128,
      "vfp": 9129,
      "32A": 9130,
      "NOTSUP": 9131,
      "username": 9132,
      "libAV": 9133,
      "VFIO": 9134,
      "yalpha": 9135,
      "opn": 9136,
      "isValid": 9137,
      "_remove_": 9138,
      "_FL": 9139,
      "srcU": 9140,
      "_block_": 9141,
      "tcg_out_opc_": 9142,
      "Settings": 9143,
      "av_new_packet": 9144,
      "DH": 9145,
      "kx": 9146,
      "strcasecmp": 9147,
      "_properties": 9148,
      "FIXED": 9149,
      "LensMount": 9150,
      "volume": 9151,
      "UNIX": 9152,
      "MMAND_": 9153,
      "ategory": 9154,
      "NEXT": 9155,
      "]\"": 9156,
      "ar_": 9157,
      "ITY_": 9158,
      "ram_": 9159,
      "swd": 9160,
      "_poc_": 9161,
      "av_free_packet": 9162,
      "tcg_gen_ext": 9163,
      "PREFIX": 9164,
      "film": 9165,
      "vc1_m": 9166,
      "Eff": 9167,
      "Mutable": 9168,
      "spar": 9169,
      "esd": 9170,
      "max_s": 9171,
      "regno": 9172,
      "_has": 9173,
      "Undefined": 9174,
      "payload_size": 9175,
      "channel_layouts": 9176,
      "_Private": 9177,
      "DisasContext": 9178,
      "nick": 9179,
      "_prop_": 9180,
      "_Bit": 9181,
      "ZEND_MM": 9182,
      "Hash": 9183,
      "aded": 9184,
      "lprint": 9185,
      "vsub": 9186,
      "set_t": 9187,
      "STOP": 9188,
      "QUER": 9189,
      "STATUS_": 9190,
      "_CRYP": 9191,
      "bits_per_sample": 9192,
      "WORK": 9193,
      "KIND_": 9194,
      "val_": 9195,
      "FFF": 9196,
      "_debug_": 9197,
      "998": 9198,
      "mvs": 9199,
      "CONTROL": 9200,
      "group_len": 9201,
      "SOUR": 9202,
      "qedi_cmd": 9203,
      "511": 9204,
      "PG": 9205,
      "_address": 9206,
      "kick": 9207,
      "pTab": 9208,
      "wake": 9209,
      "ERR_PTR": 9210,
      "crtc": 9211,
      "bits_left": 9212,
      "tensors": 9213,
      "_packet_size": 9214,
      "avio_w": 9215,
      "Append": 9216,
      "SYSTEM": 9217,
      "c3": 9218,
      "decrypt_": 9219,
      "php_": 9220,
      "150": 9221,
      "ANCE": 9222,
      "transmit": 9223,
      "exponent": 9224,
      "_STD": 9225,
      "PV_SUCCESS": 9226,
      "CHARS": 9227,
      "NOTSUPP": 9228,
      "Action": 9229,
      "PACKET_": 9230,
      "gregs": 9231,
      "_cal": 9232,
      "_rfb": 9233,
      "180": 9234,
      "vp7": 9235,
      "error_setg_": 9236,
      "header_len": 9237,
      "inserted": 9238,
      "mspel": 9239,
      "avio_wb32": 9240,
      "andidate": 9241,
      "_savev": 9242,
      "Push": 9243,
      "sta_": 9244,
      "_dyn": 9245,
      "dule_": 9246,
      "start_addr": 9247,
      "IV_size": 9248,
      "sender": 9249,
      "sz_rfb": 9250,
      "machine_": 9251,
      "avio_r8": 9252,
      "kvm_m": 9253,
      "dmv_y": 9254,
      "rtl8xxxu_write32": 9255,
      "Async": 9256,
      "UChar": 9257,
      "aac_": 9258,
      "deblocking": 9259,
      "le64": 9260,
      "once": 9261,
      "idle": 9262,
      "RENT_": 9263,
      "FFSWAP": 9264,
      "disp_": 9265,
      "SRP": 9266,
      "INIT_VLC": 9267,
      "Cap": 9268,
      "IA": 9269,
      "]>>": 9270,
      "_irq": 9271,
      "rfc": 9272,
      "revision": 9273,
      "units": 9274,
      "REPORT_": 9275,
      "linux_": 9276,
      "sharp": 9277,
      "DIGE": 9278,
      "mv_table": 9279,
      "elems": 9280,
      "matches": 9281,
      "expression": 9282,
      "compress_": 9283,
      "optimize": 9284,
      "OMAP_": 9285,
      "nib": 9286,
      "yaff": 9287,
      "AVE": 9288,
      "proces": 9289,
      "DOCTYPE": 9290,
      "_filters": 9291,
      "_minus1": 9292,
      "Rects": 9293,
      "FD_": 9294,
      "Gen": 9295,
      "I0x": 9296,
      "JECT_": 9297,
      "KE_": 9298,
      "NW": 9299,
      "Napi": 9300,
      "pbuf": 9301,
      "droid": 9302,
      "LOOP": 9303,
      "_dist": 9304,
      "chrSrc": 9305,
      "se_golomb": 9306,
      "fw_task": 9307,
      "PICT_": 9308,
      "fw_task_ctx": 9309,
      "ERRNO": 9310,
      "set_bit": 9311,
      "i_data": 9312,
      "LEVE": 9313,
      "FIX_": 9314,
      "sums": 9315,
      "Unexpected": 9316,
      "mv_dir": 9317,
      "vbe_": 9318,
      "adapt": 9319,
      "\"=&": 9320,
      "LEVEL_": 9321,
      "Fin": 9322,
      "_MM_": 9323,
      "adpcm_": 9324,
      "_pad": 9325,
      "fix_": 9326,
      "irror": 9327,
      "ticks_per_": 9328,
      "'=": 9329,
      "_co": 9330,
      "ys_": 9331,
      "_plx": 9332,
      "lename_": 9333,
      "input_shape": 9334,
      "0xfff": 9335,
      "TARGET_FMT": 9336,
      "hash_": 9337,
      "pxor": 9338,
      "fraction": 9339,
      "RADEON_T": 9340,
      "TARGET_FMT_plx": 9341,
      ">(&": 9342,
      "Are": 9343,
      "NSV": 9344,
      "_setup": 9345,
      "png": 9346,
      "zlib": 9347,
      "{}": 9348,
      "role": 9349,
      "spl": 9350,
      "samplesref": 9351,
      "cris_alu": 9352,
      "BIT_DEPTH": 9353,
      "granular": 9354,
      "MD5STEP": 9355,
      "slow_path": 9356,
      "_mark": 9357,
      "mmu_idx": 9358,
      "Calcul": 9359,
      "HHVM": 9360,
      "Ap4": 9361,
      "oz_": 9362,
      "fff": 9363,
      "conversion": 9364,
      "gettime": 9365,
      "iteral": 9366,
      "JSON_": 9367,
      "ENABLED": 9368,
      "TPM_T": 9369,
      "mc_saved": 9370,
      "8000": 9371,
      "_ch": 9372,
      "java": 9373,
      "kmalloc": 9374,
      "info_": 9375,
      "_div": 9376,
      "in_num": 9377,
      "output_files": 9378,
      "destination": 9379,
      "izer_": 9380,
      "tcg_gen_br": 9381,
      "backing_file": 9382,
      "vorbis": 9383,
      "RBin": 9384,
      "amount": 9385,
      "_typ": 9386,
      "resp_": 9387,
      "MESS": 9388,
      "substr": 9389,
      "IRQ_": 9390,
      "RGB2": 9391,
      "njs_slow_path": 9392,
      "abi_long": 9393,
      "yy218": 9394,
      "OSE_": 9395,
      "_CLO": 9396,
      "pbdev": 9397,
      "ARCHIVE": 9398,
      "CVAR_ARCHIVE": 9399,
      "picolc": 9400,
      "IES": 9401,
      "_last": 9402,
      "nap": 9403,
      "year": 9404,
      "escap": 9405,
      "blad": 9406,
      "Look": 9407,
      "selblad": 9408,
      "Reverb": 9409,
      "LD_": 9410,
      "nex": 9411,
      "rsize": 9412,
      "loor": 9413,
      "_pin": 9414,
      "s_len": 9415,
      "logout": 9416,
      "io_buffer": 9417,
      "dense": 9418,
      "spr_read_": 9419,
      "mission": 9420,
      "cluster_bits": 9421,
      "_receive": 9422,
      "suffix": 9423,
      "DUMP": 9424,
      "Matrix": 9425,
      "_7": 9426,
      "_surface": 9427,
      "DEN": 9428,
      "INT8": 9429,
      "_primary": 9430,
      "video_buffer": 9431,
      "characters": 9432,
      "_CLASS_": 9433,
      "SND": 9434,
      "_enabled": 9435,
      "like": 9436,
      "output_shape": 9437,
      "qemu_ld": 9438,
      "gf_isom": 9439,
      "_predictor": 9440,
      "hybr": 9441,
      "GROUP": 9442,
      "410": 9443,
      "TB": 9444,
      "U8": 9445,
      "_sizes": 9446,
      "p_end": 9447,
      "istics": 9448,
      "MPI_": 9449,
      "index_reg": 9450,
      "offset_x": 9451,
      "RESER": 9452,
      "_SYS": 9453,
      "mid_pred": 9454,
      "qobject_to_": 9455,
      "ARCHIVE_OK": 9456,
      "digit": 9457,
      "PROT_READ": 9458,
      "interpreter": 9459,
      "mnt": 9460,
      "lection": 9461,
      "Reference": 9462,
      "cbs_": 9463,
      "stacksize": 9464,
      "drv_data": 9465,
      "SYS_BUS_": 9466,
      "CA": 9467,
      "LBR": 9468,
      "fw_": 9469,
      "lace_": 9470,
      "ions": 9471,
      "_cb_": 9472,
      "LAT_": 9473,
      "SPS": 9474,
      "sbi": 9475,
      "planar": 9476,
      "spr_write_": 9477,
      "has_b_frames": 9478,
      "offset_y": 9479,
      "Note": 9480,
      "1010101": 9481,
      "bit_depth_luma": 9482,
      "_scsi": 9483,
      "negotiate": 9484,
      "Atom": 9485,
      "hints": 9486,
      "qmax": 9487,
      "still": 9488,
      "senc": 9489,
      "size_in": 9490,
      "REC": 9491,
      "Style": 9492,
      "tmp3": 9493,
      "agged": 9494,
      "hdr_size": 9495,
      "MBAFF": 9496,
      "servers": 9497,
      "CRC": 9498,
      "ignored": 9499,
      "PKT_": 9500,
      "16X16": 9501,
      "fl_": 9502,
      "ignoring": 9503,
      "sce0": 9504,
      "SWS": 9505,
      "vider": 9506,
      "fill_rectangle": 9507,
      "qemu_put_be32s": 9508,
      "_dims": 9509,
      "DXVA": 9510,
      "DICT_": 9511,
      "throttle_": 9512,
      "SKIP_BITS": 9513,
      "PAM": 9514,
      "Right": 9515,
      "mfx": 9516,
      "rng": 9517,
      "ssi": 9518,
      "atype": 9519,
      "_fpg": 9520,
      "lier": 9521,
      "_cfg_": 9522,
      "prepare": 9523,
      "IOVector": 9524,
      "paths": 9525,
      "YUV_SHIFT": 9526,
      "log_mask": 9527,
      "SDL": 9528,
      "mpeg2": 9529,
      "tileno": 9530,
      "receive": 9531,
      "tswapl": 9532,
      "title_": 9533,
      "_PAGE_SIZE": 9534,
      "RGB2YUV_SHIFT": 9535,
      "LR": 9536,
      "misc": 9537,
      "inbuf": 9538,
      "ca8210": 9539,
      "yybm": 9540,
      "movn": 9541,
      "trace_e1000e_": 9542,
      "type_register_": 9543,
      "TF_ASSERT_OK": 9544,
      "va_arg": 9545,
      "picture_number": 9546,
      "UPDATE": 9547,
      "StructuredHeaders": 9548,
      "GetTensorDim": 9549,
      "ASCII": 9550,
      "type_register_static": 9551,
      "_g": 9552,
      "fuse": 9553,
      "pLVREV": 9554,
      "ru": 9555,
      "num_bands": 9556,
      "sigaction": 9557,
      "frame_number": 9558,
      "period": 9559,
      "AVERROR_EXTERNAL": 9560,
      "sin_port": 9561,
      "INTERLAC": 9562,
      "special": 9563,
      "TCGv_i32": 9564,
      "pLVREV_Private": 9565,
      "300": 9566,
      "FB": 9567,
[...]
